memory_initialization_radix=2;
memory_initialization_vector=
0001100010110111110100000101001001011100110000000101100100111111,
0010100101001100010000010101011111001000111010000011010111011000,
0010011011101001101111010100110000001001110011101011011100011101,
1111100011011111101000000001010000100001001001000000100011110100,
1110101110101100000011100101000111000011101100010000011011000111,
0101000100110100101101011110011111011011001011100001101100111000,
1010110111010001001000010001010100011110111110100010110000011111,
1010100000110110101011110101010100010110010100001001110010111111,
0011001100011101101101100001011011100100001010110010010110111101,
0000001111101110101000001010000001011001010110010000100001001001,
1011110111010010000001010001010001010000010110101111110000101101,
0000110001000001000101001111000010101011001100111100100111111001,
1111000001010101101101101011000100011000111110101101001100111001,
0100110010111000110001011101001000001001000000011011111000011011,
0101111111110001111101110010101111101101101111100110001100101011,
0001001101011010000001101011100010101000110101010011011000100011,
0110011100100110000011110101011001101010101101111101100000000011,
0011001100010010010000110000111111110101001011011011101111100011,
0011001110011101110011100101001001010110000111100010000100011011,
0100110110011100101110000011001010101111010101011101000100111110,
1001101001100100000100111100111110111001111000100101111000000100,
0001010110101100000000100011111010011010111101100110011010101001,
1010101000100111001111111111101110111110010110110000100101010101,
1011001111000001000011011101100010110001101010110011110111011011,
1100101110100011101011000000001011101111000111010101110000000011,
0100101101001101110111011010110101011111001110011101010001101000,
0000000000111001110111101010011111010101001001011110001110101010,
1010100110111101001111001110110010101111111001100011101110100100,
1010100111000111010011110000001001101001111111100100011001011100,
1111011000100101000101100010010001010111010100101011100001100011,
1110111011100110010000110011101000010101110111010101010101000100,
1100011011010000111101001111100110110001001011000001010010101110,
1110010000110110010100100100011100010001101111111100011111000100,
0011110000111101001111001100011100001110010001001111000110111111,
1110101000001000111100001010111110011110000110100001000111000110,
1111000111011110010000000010001111111100000111001010001011000101,
1111111100100101110100001100001100100101010011110100010101000111,
0000110011001100000110000000100100110010101100101010000011110000,
0101000101011010000001011111100001000001010010110101111010101110,
1010000001010001000000101101001101010101000011010001000101011110,
1110000001100100010110100010101101100001000111101110001010110011,
0110001001010111001110111011000100110101001100110101111001100000,
0011110111110010011000100101111110111111110010101010111110110001,
0010100000101101001111011011110111011100000100100010110010110000,
1011000110100100111111011100010000000010001101111101111101100001,
1111011011110011001000001010000000001100111010110010100001010100,
0000000000100111011001000110000011000001110111101100011110101100,
1111010101000100110110011100111010110100011000010010001101001111,
0011111000110010111100101101011111011101010110011111110111100001,
0010000110110111101101100101110101000010010011011111100110011011,
1110011001100000011000010101001000011011000010011010001001001101,
0101000100110000100111101010110101001101101001000000101100010010,
0100010100011111001000011100100110100100010110010011100001011110,
1010101000110010000001011110010101100011110011110011000011111001,
0010000011001100111011111110001010100110101110000110010000110100,
0100000001001010011001001011000100010111110010110101101101001001,
1011000011110111101111010100001000010001111111011110110111110110,
0001111101011100000010001111110001010000110111000100001011000100,
1011010110011100001011100001110011001100010011111011111110110010,
0001101111110101000010010010001001010010000000101011011000100101,
0110011011001001000011010001101001011100101101000100101111101101,
0000010000001101110110010000100000110110010111110011011111010000,
1110100001000001001010000011001111001101101100010101010100001010,
0110111101010101000110111111111011000111000111011001011000001111,
0100110011000101100111101100101100111110000111111101100100001100,
0110010110111110001101100110010110111100110100010110000000100011,
0000011010011101110101000100100101011011101010110010100000000101,
0011011101001001100111001111101011011010111100011101111010100110,
1100111101011101010101011110001000010011111101000101001001010101,
1110101011101100101001000110001011110100000101001100110100001100,
1111010110110000111011011101000100011100101101000100011111100000,
1010010011000101010001100011100100101110000000101101011010111100,
0001010100111011110111011010100010111001111111100100111000011110,
0011000111011010110100110100100101101000110001010101001111111010,
0000001000101100101010101100110101100110110110110000111000011111,
1110110011000001000001111101111100101010010101000000011100110101,
1010101100010010000001011110000111011001101111001110110101001111,
0110000110101011010101000010011000010101001000101100110100111001,
1110011000111110010100101010001100111101001011001100101100011001,
0011100001010110000110111111111000111101101001011110111010101010,
1010101000101001001111101101101111111000000111101100110101001110,
0011111110100011001011111011011011010110010110110100101101101010,
1111100110110101001001110000111111110000110000010001011001001011,
0000111001010011111010010001010101100101110110011111111000001001,
1100000111000100010111010001100101000110111010100100101101100001,
0110011111010100001101101011111000110100001100011010010110111110,
0011000100010010000101100000100110110111111001100001010001100111,
0011101110110011110011100110100110110101011010000110000111101001,
0001000011100010010100000110010111001101001010101111100011111011,
1010100010011110101000001101001101001000001111010100111100110010,
1101000011101010010010001011101111101111000100111110011011001100,
1100000011100010111101110001101101001011101000011111111010111010,
1011101010011011111111010001101011011111001101101100000111010111,
1111100111001001111110011110101001100000010011100101100110100010,
0101000111101100111101100000101111101000010100010001101111101111,
0000100111101110000110000101111000100000010001110010010000011001,
0100101100100101010010110100100100001000110011010010011011011110,
1011101110111001010000100001001100110010010101100100011011110101,
1101111011011011010110000100000111010010010000100010100111110000,
1011001101100110010011001101101100011000111011001010001010110010,
1101011100000001110110110100000110110111101000001101110110100010,
1100101100111111010111010100010000100101000011000011010111101010,
0011111110101111110000100000010110100011111010101010011111100110,
0000000000101000000111110110100100000001110110101010001010101010,
1111110110100001000011010101100011100110011000000011000110110110,
1101001111001000001111001111111101010000001011111101110101011011,
1111110111111011110000010001101100010100011000000011100100101000,
1101011010100111001010010101011101001001001001001010000110101111,
0000111100001100000100001100111111101000001000101101010000011111,
1110100111111111101101010101101010111011000001100000110100100110,
1101010110101110110100010010001110111010101000111101000010111001,
0001110100000011000110110010101011000110001100010110000011010111,
1011001000110000110001010100110100001110111110101110010000111011,
1101000101010001101101010011101000001110101000111011011011010001,
0101001000110100110110111100100000011101001101101100010001100011,
1010011111011011110000101010110101100100000100001001111111011110,
1100111100110110111110111111000100111100110000011111000100100110,
1001111111110011111011010001000010110000000100101101001011000001,
1011000000000110001010010110000000100011110101110100011000000111,
0011000111000000111010101101101010011101001111010010010111000110,
0000001111011010011000101111000001001001000111011111101000001110,
1110010111100001010011111100111111011001011000110101000111110111,
1101001111011100010010000011100100001001110000010110001100011000,
1101100100101111111000010101011000001001101100101110111110101100,
1011101110100101000101011010110111011001011010000011111001001000,
1100011011101011010110010011011001010011110111100010111011110101,
0101000010111000101011100011100101010100110101100101100011111101,
1111101011001100101000011111110100100000111001100101110111101100,
0101111101010011000011111011001001010000101001101111110010110011,
1100110011110100101011001111000000111001010101010010000000110101,
1111110011000001010001100000111101100001010101010001101010111100,
0100000010110100110011001110001101001010001101101101100010101110,
0001010111011100111100000100011111100000111110001010111010101010,
0100100000110001110111101110000010011010001010011011100001001011,
0000101100011100010100001100100001011111101000101011011111111111,
1100101111111101110110010001111101010010010001111111101011111001,
1101011011101001111111000101010011000010111101011101101100100101,
0000001111000110000100110101010110101101110010111010000100011010,
1100000101010110010011101111010010100110010011101011101010111100,
0011001111101100111011110000001111110110110100100000000010100001,
0001101101001100000111101110110111001010001011111111110111110100,
1101100111100010000010011010101100011000001010101011111110101100,
1010000001011010101010111010001100110000010010101110101111101011,
1011101101011100110001100001111000000110101000000110000100101100,
1100011011001010010101000100101011011011110100100101111100111010,
1011111011111000111111111111100100011110001000100000010001101000,
0110011011000011000100101011111111101011110010111110111110110000,
0000100100011011101100110001000111001100111001101101001100110101,
1111011101100011101100000101101001010110000101011100000101010000,
1010110011001000111010011011011011011100101001100001000011110011,
1100001100011001110011010011110110110001001011010011011100100000,
0011110000001001001011110001110101001011101111011110111110100000,
0000110110100000011010101011011110101011110110011101111010101000,
1100011110101100001101101111000010100000111110000001111001000000,
0010001011010111010010001010110000111011001100010011001010110001,
0011010100110000111111110110011000111111010011110101101011000111,
0101001111111010110100110101000100010101101001010100100000110100,
1010111011111001010111000000011000011100110000111110110000011010,
0110101010110000110010110000011100101011101010011111010110110101,
0001110000101001101100001110110111001011111011111011010101000101,
0011100100000000111010010010101001100110110111001010001100001010,
0010010111100010110111111100011101001000110001110011010010010100,
0101100010110100111010100000001001010011001000100000101110101101,
1101010000011011110111001100011001011010111000000100000110110010,
0011111000101010101100111011010011000010001100011011101011001101,
1001010011000110110001111011011011100011011011100000100011000000,
1100111110111010001000001011011100110011001111100100011111100111,
1101000110100101101110100010111111010100101010110011101000110010,
1111100100111000110000101101111000001110010000000000101011011100,
0010110100011101101110001011111100010001010001010011111100010101,
1101000000111000110000010100111011001011111111101111000011010000,
1111111111010101000000100001000111111100001101110110101111011101,
0100100001101010000001011010111011011010001101010011000100010111,
0100101011110000010001100101010101001000101100010101001101001001,
0011101100110001110010001111011000110001111101011100000111110011,
0000000111010001111111111111100000100011101010001011011100110101,
0011110001011010111110000010111000011101011000111010011111110001,
1100110101001000111101001110010001100001110001101010010100100110,
1101010101100001111101001100111101011011100111000010010000000110,
1010111100110011110001000000111000111001110001101010100111100100,
0100001111011011111010001110111110011101101111000000100111100111,
1100010011111010001111000011100000001011101101010001110001010111,
1010100111011000110101100001010111000010010100011011011110111110,
0010101011111010000001100001110110110010010101000100111100111011,
1010110010100101111011101001101011001010111010101111000000101001,
1101011101000001010010110010001001000011010111100010110011101111,
1110010100110100001001100001110001011111011000110100101111001110,
0000100000001000111101110000111011000100101111110001101001000001,
1111011000100100100110111011111010101000110111100100000111000111,
0110101011000111000101010011111100010110110010111001111010110000,
0000010000010100011001010011100011111001100111110011101010110111,
1001111101000100001001010101101101011100110110111101011011110001,
0100001000111110001000111101010100011011111101010110111100000010,
0100101111111111100111010010001110110110010111101010001100011011,
1100001001010000010000001111101100000100101101010001010100110000,
1001110100110011111010010100011111000000000000001111100100101111,
0100111111100101000011111110010011011100110011101101110011100100,
1111100111100000101100111100110110110001110110000100001100110110,
0010000011110100010000001111100011000011000111010101000011011011,
0100010000000111110001110110010010111101101101110101111001101011,
1111100011001011000110010010110110111110001111000001010000010110,
0010101111110110010000011110001110100011101111011100010000100100,
0110001111000101010110001010001001011001001110011110010101100010,
1010010000111011010100001011100100010000001111101100100110111100,
0101111010111100110001110001110000000011101011010011100000000110,
1101010101010000001000101100100011111010001011100000001100001111,
0100001101011111000101011101010111000001010100011101101010101111,
0101010100100001001101110101100001000001101101000010010110111000,
1111011101011001111101010001100111011111000101010010110110110100,
0100100101100000001110001010010011011111101101101110011110101101,
1101000111110011001010111011101011100011000011100001001000011010,
0010110111100010110100010001010100100010001001010100110011111011,
0110001011000110010100011011111001100000111100011110010100000110,
1100101100100000001010101101100011010010101111000100100111110100,
1100100001011011001010111110110001000111001100000101100000110010,
1011101101100111001100000010000010111000000100110101011110110000,
0100110100111100101111011010110101000001111111010000111000011111,
0001010011000100000110100100110011101110001101001110100101011100,
1101100000010011000100000101000100011100001110001010000111000000,
1011101000000100101100100100010101011101110010001011000011110101,
1010111000001110101101001101010010111100110000010011010111100110,
1110101010110101000100000100101110100101001110000100010000010010,
0010010010100101111111011111000101010010101011100110001101000101,
0110000001010110111000101011001010111000001100101100101110101101,
0010010110110001101110101111101100110100101100111100011010110100,
1100111011100110001101111101110111010001101101000001000110110011,
0110100100111011110111011110101100010011011010101101100111111100,
0010100100001000001111100101000001000111110001101100001110110011,
0001110001010101000011110011010100101010110010001011110111000010,
1111010010100111010000011011000011001100000010000100001110101111,
0101110111010110111001010110010111100001000011001111100100000000,
0101010000011010101101001011000111110000010001110010010111001001,
0010110101011110010001101011001110100001010000011011010000100000,
0001000111001101111110110000010111010001110111011110110001001100,
0010110010110100111110000000010101010100111101101100000101101010,
0010011110011101011001111101011011101101001001110110000111010110,
1111100001101011010000110100110101001010010001010010110110011101,
1011010110110100010010101111011101010010001011011011101011111101,
0110000110111100010101110011100001000100000010001100101100111110,
0110100000001011000111101110010000101110010110011001101011111010,
0000111110111000000000110011010011101111110100011100010000010111,
0011101100001110101100101101100100101001010000100001111111000001,
1111000101011000111101100011000110100111001101101011010011010111,
0010100001011110010000000100010100101110101001111101111101001011,
1011001011100010110111011011111000100000011000111100111011101101,
0011111010111110010001000101101011111110010101111011001110111011,
0000110100011111001000110100001111111111101010001011001011011100,
1111011000111001010111001110111000100111111110110001111111101111,
0101100101001101001111001111001010111001101001011001111011101101,
1100011100110110010001000001110101011111111100110000011111110100,
1011101010110001110010011010101111100101000001110010101011011111,
1011000101011011000101110011110000100000111110010000110110111110,
0100010100100101110111100001000111110100000001011001011010111010,
1100001000111100000110110000001001001111001110101101100100111010,
1101110000010001111001111010110110111001000110111110111111111011,
0011011111111001001101001010000010111100010111000011011011011010,
0001010111110011011000111010000000110001000000000010000111011000,
0000111011001001110111011100010111001011110010011011111001001100,
1011010000000100001000111010001101010000110000010000101001011000,
0011001110100011111010010010111011111000010000011011110011010110,
0001100110111110101101101011001010011011111000010101100001011011,
1010001110111111101101000100101001010110110000100010001100010111,
0101100111101110110100101111011010100100001011111101001111101100,
1100001001000101111110101101000001011001010010100010000111000110,
1111000100011100010011000011111101001111010011011101000000010110,
0101010010111001110100000101010100110100001101001011101110100000,
1010100110110101010010000000110000101100101010111011001001001011,
0101001010011111010000101100011100110001010100000011101100111011,
0000110110111000010100111100111000101101000111111011011111000001,
0100101001001010011000100000010111010111010101000000001001011111,
0011001101001100110100110011100000010001101111100011101010011110,
1101100011010001110110110001010010110010101001110110001000010100,
0111000100010111010111101011011000010101000100001011110110111001,
0000110111111010010111010010110010111101101110001011001001101111,
1011010011010101111010111101010100001101000100111100101111001011,
1100010011011100101010001111101111110110111001010110010000111001,
1010010111101011111001010001100011111100001101111010001101010001,
0010001101001001010100000001011101010110111001110100110111010001,
0010000110100110111000010100011011010001010000000100100010110100,
0010101100111000000011110100110000100101111011110010001011110111,
0101110101011111110111110110000000101111010011011010000011001000,
1011110100101010111101010100101100100011010000000011111101000110,
1110101110111010001110011100001000100110111010100101000001000100,
1100001000110000101111010100110100011110001011011101011011100011,
1101001011011010111001100101111000011100101111110100010110101000,
1110111001000111001101110001010001010011101001101011111100111001,
0010010100101000001000001101111101011000110101100010001111001010,
0100011010101110101100000011100001001111000100111111001110100101,
0010001011010011111010010010001111010011110000000000100011111000,
0000101001010011101000110001011001010111110001110011111000001100,
1111001101000001000100001100000000001001110011101101010000111111,
1110111011100000111111010011100111100011010101110001100101100010,
0100010101001100111111111101111111111010100110010001111101100001,
0100111010110000101100100100011011110101110110101111101101000101,
0010100111000110000110010110000110110011101011001111001000100111,
1110101101010001000101000110001111110000101000100001011000010011,
1101001111001100101101010011101111000110101010100001111100001110,
0101111111001101110111101111001100011110000101011111101110111000,
1011111010111111101100111111111111100101111100000101100111000101,
0010101011111011001111110101010100011011101001010001100110101011,
0110010000011111100110000011011101010001000100011100000011011011,
1010000110100010110010100001000011011001001001110010110001011111,
1011110100011101111011101101011011011110010010101101100111000101,
0100000110101100001010000001000001100011110001010100010010111010,
0000000000100011000000011010110001100111000100000101010000101101,
1011000111101111101001010001011111001001110110000000111100110101,
1100011100110100001011001001111011001010000011110010010001000000,
0000111100100111110101111110010111000000001110001111111100010100,
1110100100000110000110001111101111001001111111010101010110101101,
1100111100010011011001110011010110100000000001011101110101001110,
1110011111100111000100101011011000011011110100110011101000100011,
1010011000110100110010001010101101100111011001001100100100111000,
1110110110111011110110011111010011011000101100000000100010101011,
1110110011010011000111011111110111110110000001010100011100110100,
1110101000111010000110111110000001000011001010100101011110101110,
0110000100000101110100111101011011001110001010111010110000011001,
1101000001010101111100111010111100111100110011100110010000011111,
0101010000000000001011110011111111000101111100101011111000011110,
0100100100010001101100111110110011111001111101111001111100010111,
0000111100101000000001111100011001010101110101001101110000001101,
0001000100100000010000001110010011100010000111010000110000101101,
0110001111001110000010111111000010111010100110110010000111101100,
0000111101100111010011011010001110100011011001110000000001001110,
1100010011010111111110101010011000010110001010100100110011011101,
1010011111101100001010111101000110111001000110110000100100110010,
0011000100001110011000010110000100000100101110100000010000110111,
0000001110101010111001101011101101010111101001011010110011011000,
1100100000101111000011100011011111100000011000100000010101010000,
1101000011100010101111101101101011100011111001001110100101010010,
0011010110101110110000110000110011000010100111011111111111001101,
1010111010101000101010010011001111001110010111010100111100010000,
1100010100111010001100111100100111001110111000100100010010110011,
1110001000110010000010010100111011110101000001000100101100110001,
0010100111000111110010111110010000000111111001011011000111101101,
1110001110111101101011111101110011000001011000011010011111100011,
1110111110110001101110010100110111001001111010100010101011101001,
1111011011000100000010000010011010101000111110001110101010101101,
1011111010110111101000100010010011110001101010011010110100001100,
1111110111110011101111001110010111000101001010101111010011110101,
0000111100101001111111110100101111110110000010000101001010110000,
1101100010110110110101011110100101100000000101110010101111100100,
1100101111011101010101111110001000011011101000000001111000000010,
1111011111100100100111100100101000000111010101001101110100011010,
0001110110011111010110011010011110110111000000010110011000011011,
0100110111100000110110110011011111111110010110011101010100100010,
0001111000101010111111001111101100011000110000001010101001010100,
1101010001011010100111010100110100000011000100100100010100100010,
0010001000010011111111100011110011100111010111010011001101011001,
1010011011011101101101110110001100010001110010111111101000011101,
0001100101010111101000011010011111100000111000111101111110100001,
0000110100111101010110111101011100010111001101101010111001001001,
0010011110011111010111010010001110011100001110101111001100000000,
1110110111010100110010111100111000110010101101000101001011101011,
0001111011001000101110000001110011011110001011100100111011110001,
0001011110111111000101001100110100001011111000111110011010101010,
0100011011111101111010010011110100110101011000111011101010101011,
1111000111000001000000101110101011000101111101010100000101001011,
0000001010110000010000110110001011101100000111110001011000110100,
1010111101101000001111001010010111010011010001011010101000110111,
1011001111110111010111001011011100001001000110101100100100001100,
0100110110100010111011010100000011101100110100011100101001010100,
0000100111000000101001000001011001101011101010001100011011000101,
0101111000101011110100001110000011000001010000010000110111010000,
0000101000000011111101001100111111111101010111001011100100001100,
0011011010110010111011111100110010101111110100011100110110101000,
0001000111010110101100100100110010111100110011110001110110110101,
1010111100101101001100101011110111001000101000011110000000110000,
0000010011111000001100011110100011010010111011101010100011100100,
1010110010111000101001110100110000101100000011010100000111110100,
0000000100010001111100101110011100010111000001101101100001101000,
0001001010100110111110100010011011000111111100000100101010110001,
0000101011111111110000011011011110101110000010010010011011101010,
1101100110011110010010110110100011011010010000000011100000010001,
0001010001001100000001011010011000101110101111000011000111001100,
1101010101100010010011011111000000010111001111110011010111010100,
0000111010111010010011110101110011110010000110111100111101000011,
1100001011101100101000010101101011110111010110011010110000000000,
0010000010111110111110011111000001011001111000011111110100111010,
1010111010111100101110010000111000010010001111101100001101101011,
0011110011100000001000110010011111010110110011000100001101011101,
1010110101010111010110010010101011101111110110001010010011101011,
1111001010010110001100111011110001100110110110010000011100110110,
0101110000111110010100010000001000010101110001011010000000000010,
0001011010011010001100110101100111000001110001110101111010100111,
1110000010011111110100010110011111001101111010101010010011111000,
0010100000100001111011011110010100011001110101111111001110110010,
1010110101011111010101101010001100110011000010011100100111100000,
0000111010110110000010101101011110110011111100101110101111100011,
0110101011111011101001011110110101010011110011011110100001000011,
1110011011111011111010000000000101100111010100100101010000100111,
0011101111001101101111011110010011110010111110100101100100101101,
1110111011010000110110010000001100000101111010111110011001010111,
0010000101001001111110101111101101010100110111010000011101011100,
1010110110111001101100110110010100000110110100000100001110111001,
0101010001010010011000010100101011100100101100110100000110100010,
1110010010100100010100100000010011000011001010010000010001010011,
0000001010101001110110100110000001011100001000001100110101100010,
0010000111010100000101100101110110111000110111001011011011100010,
0000100111110011101000001100111100000101001011100110000101100110,
1011010100010010010001101110100111000100111101101111111011001110,
1111101010111011000011101110100010011010010110111110000010100011,
0011100011110000001110011110011010011101001111011111110011100000,
1111110000101001001110101010101001011100111011000110011011001111,
0010000101010111000001001111101000110010011000110010011101001100,
0010101011011010000010101011011100111110101110000101010101011010,
0101001100011001111111000001010010101011001101111110100001000011,
1011101011101110001001111100101100011100000011100010111100111111,
1110101001010000110010110011101100011011111101100101000011111010,
0000100110111000001010001010001010111111101000100110001111011101,
1011101011101110110110010101000000001011000101011100001100100001,
1010000000100010110111111110011111000000101000001100100011101111,
0011000111010100110010010100000100001110101001100011011000000011,
0011111010111010011001110100001001101000000111110100101001001000,
1011011001011000101100011111001110101000000111111101011100000101,
0000010111111000111001010100101111010110000010101100011101010111,
0010010000100011110101100011010011110001000011001100110011101101,
1011111100011101010100111011101000001011110011100100000111111100,
1011000111101110000100110101100000110011010010111100000100111101,
0000001000101010001000101010100100000100101000001110011000011100,
0010010110101111001010011111011100101010111101110001100000100111,
0001010101010000001100101101111000101000000101010100001100000011,
0011001111000111000100111010000000100010111001100100011010101111,
1111001011000010000011100010101011010110101000010010001011010010,
1011010110011011111001101100101000101100001000110101101111111001,
1011101110100101101001110011101111101011111010010000110111101000,
0010110100100101111101001111000111010110001100011100100010101101,
0000000111001110110010011010110111010111001110111111000110011111,
0010110011010011010110001100100010111100001001011110001101011011,
0110000011010001011000001110011010111001111000111110001000100110,
0100111000000010110011101110001111110110001101000100110000000111,
0001110100000000001011111100000111011000011000111010111000010101,
1100001011100101101100010101011011100101010000110101000000000011,
0101000111101110111011000001000000111111010110000101100011100100,
0011011101001111111111110100001000001101101011100100111000111000,
0100001101000100000010100010000000010000111000011101010000110101,
1100001011010011110101100101101100100000110001001100010101100100,
1100001011001111101010001100111111011010010011111011110110110111,
1011110111111111101110111010010011011000111100011011111001000011,
0100001000110111001111001111101101011110001101000001001011100100,
1110111100111010011001110110000011010000110110010010011110111100,
1110111110100011001000100000011010110001111011111111100000011110,
0000100010101010110011111100000001101000010000100011110100011011,
1100001100111111001000000100010011101101010100001010111011101010,
1110001001001111000110010011010100001100000110000110001010101111,
1110110010100010001100001011000110101001001111000000100011100011,
1100001011011100010110000000100001010010000111100101110011110011,
1010111011111000000100001111101111111011000000010010101101001110,
0011110011001110010110110010111000101101101100111001110110101011,
1010100100100001101000101010100111000011111111111101111110110010,
1010010011011100110010000010110010101011101001111010010000010010,
0101010010100101110001000101100000101001101010111010111111111000,
0010100000010000010011111111001110111110001000000110000111100100,
0000011001011011000011010011011000001000101001001110010011001000,
1010011010110011001001000100100000101111001010110101100111001010,
0011011110100001000111100010111010111100111101000001100101010101,
1001110100111010010000011100000111111010111011000000100100000100,
0011011001001111010100101011111100001101111100111101010011101101,
1100010101100000110011010101101000010101001100001111100000100110,
1100101111100001001110101100100010111101001111000000110100100110,
0110000011111111111011110100101101000001110101101100100010110000,
1110000111011010000101010011011111110010001010001001111110100001,
1011101000110101101101000100110100100100010000101011001001001100,
0000001001001101000101101010100000010110000101000011010001000010,
0010010111000011010110110101110100110111010101100010101001000010,
0100010111000001010110110101111001000011010001100101001010101011,
0001000111100010010011010011000111111010000000010110010101011011,
0100101011110010101000101110011000000001111111101100000111000011,
0110110000110100010110110000010001001001110011011010000101011101,
0101011001010110001001100000101000111100110001101100011000100110,
0011001111101010001110111111000111001100111111100110010010011101,
0011101000110000100101101100010100000010110001001010000111100111,
0000101001100011111100111110001110100001000100101010100101100101,
0101100001100110111100111111011100111000001000110010010100111011,
1101110100101110010001011110001110111110110111101011110111100110,
0110011100101100110101110000100111010111110011011111110001101001,
0011111011001000101100111111001111001111111110100000100010101010,
0010101010110100001110000001011100100001001100000110111111010010,
1101110100110101001111110010111100100101111110000001010000111101,
1011010001000001101111101101000111111010110001100000101010110001,
0000111000101010000011101100101000111111101001111011000100000000,
0011100100001010110111001011100100000111110000110100011111111010,
0101010001001011011010010000100101100010010011001110010100101010,
0001011010110010000010110101010011011000101010110010110000010000,
1101101001100101110111010011111000100010000100010001101101001011,
0001010010111111110001111111011011110110110110111111110100000011,
0100011000100111000100101110101001100010110110001001111011000001,
0001111101000001000100101110100001001010110100100011000110111010,
1110001101101001001000001111000000000100111001101110101011000000,
0001101011111101111101000000111110110000000110000010011010111101,
1011010001010000110101111110101111000010111001100100100011110101,
1010011001011000010110111110110010111110101011000011111000010100,
0001110010111101000001000000010100000000000101011101110000110101,
0101110010101011000001111010110001001001000000000011010011100101,
0011000110100101111110001110111001001011010010101110010010110100,
0011001001010101001111011011000000010110001100010101000010101101,
1111010000111011000111001010111100010000001010011111101111110101,
0100110010101100101111111101111111111010110111101111111111011111,
0011010000100011001011100011101010110011000011111100011111110101,
0110101101011000111011111110100011110101010111111101101111110110,
0100000101001000110111111010100111110000111111010100101101010011,
0010101010110011110010010100101011000010111001011011001100001100,
1100011000101110111000101100101111101011010100001110110111111111,
0000111110100100101010101101001110100111000111101010001001001100,
1010011100010010111001100001100101100000101100001101000010111110,
0011100010110110001110000100111000101001101001100011111100110000,
1100001111110101111000000010010010110000000111011101111110101111,
1011001111000100101010110000100111101111111111010100010111000010,
0100011011100101001101000000000000101101110001100100101011111010,
1111011101011011010010100010111101010001110010100011101011010000,
1111001010100001000100001011011111100001000100100101011111101100,
1101010001011101001110110011000110111111000110110100011110100100,
1010110000110101111110010100000111010100111000010000001101011111,
0000010110100011101010000001010110101011010010000011011011010000,
1101101000100001000001011010110010101100111011001100011111000001,
0000101110110100111010001101011000011110010010101110110111111111,
0011001100011101111001111010010010110011101010001100010011110010,
0010101000111001011000001110110000111011001110100010101101001100,
0110100000110010000010100101110101001011010100010010001100000110,
0101100001001100000111000011110001100000000100010001000110111111,
0001100101000100001110110100010110110101000101110101111101100011,
0011111001010110000101001101110011110110011001110100110100010011,
0110001011010101110111100100001101011010001001101011100001011110,
0010101011011001000111101111100101011111111111010001100011111101,
0101100111100011000110001001110100101100101010100101001010110110,
0000101000010100000010100000001011000001111110001011011111000010,
0000110101010010001010101011100101011111111010111010111000110010,
0100101001100101100110100010110101000000001101010000110010110111,
0000101011001100010001100001000010011100101101011101010011110101,
0000111000111111101111111011110110111010001011001100001110101101,
1010110011001101110000101110011100101111100110100101111111011111,
0000000001010100010100011010000001001000011100001101001000001000,
0101101101000100010000111011110101001110111001101010010111100111,
0010110111010110000111000110001100001010001101001101011001011011,
0101010000011001101101101111001000111001101001001100010111011001,
0011110001100011001110100001100001001100010111101100110001011010,
1011000111111101111100101010111101011001000100011110010000100001,
1110110001001101010001100101101101000111000111111101110011000001,
1111010001001111010110000010001111100011111101101010001000001001,
0001000000100100111100000011010000110001101010011110100000011110,
1100010111101011000011100000001101100001010110010100000100101111,
0101010100100000110011111001101101000101110001101101110000011011,
0101000001100011000000100011000011000111110110100101111101001100,
0010010110111000001011011011010110100110000010001101110001000111,
1100110010101001111000100010111000110110110100111101010001001011,
0101101001010111010100000100100000110110101101101001101100011111,
1011110100101111110110111111101000011100101011011110101001001101,
0100010000010010110110011010100010111101000100111111000010110110,
1110010111101111111101011110010001001011000110000100000000010000,
0110001110101100111010101011010011001000011001011010100110100100,
1110101000111000111010011011110100111000111000101101010110111100,
0110010000111100111011011100011000111101110011111110000011010011,
1111001010100010101010011111101101100001000000010010001000001110,
1110000011110100101000101110100111100000010000010101000100100001,
0010011000011100010101110001000100010101011000001110110111100000,
0000010101011101000000110010001000111000001110011100100111111101,
1111100000000010111111010110000000100000101100111010010010101010,
1010110101001000000010000010101010101101000000001111111011101011,
1010010100000011101011011110111111110011101011110001101010111111,
1001100111000101010101101101100011110011001011010011110001000111,
0000010001011101101001101111001000001111101010101101110100110011,
0011001100001001110101000010101010100110111010000011110101001000,
0001001110101001101011001010111111110101101101000001010111011001,
1011111100001000110101110100000110111100111000111011110100010101,
0100010101100101000011101101010011110111011000110100100010101011,
1001111000111011010101100001001000011000101101000010111100100110,
0100100011000110111111010100101000000101000101011001101101100111,
0100001111010011111111110011111001011011101001011101100010011101,
1011100000101101110000001010010011111010011000111010011000010001,
0100111100000010010101001110000111011111111000111100110000101110,
0000110101001010001111100000100100010010001000110011000010100110,
1011010101000110101000111011110101010111000001110100001011010001,
1010000111101111110011000001010110011100001101011111001001000011,
1101100111011000111110110001001000110110111000100100110100110001,
0001111111101100011000101111110011100110010001010000000100011101,
0010011100011001011001011111111010110100001000111010001011001101,
0101100111111101010011011100110110111010001111111011011100001011,
0010101010101111111000000101011111111111111101011100110000010110,
0100000111110010010100100010000011110000000000111011010000010000,
1101001100011000110011011010111000110001011001101111001011011100,
1101110000110101000101000001100011010111110010100101110101010101,
0001001001100011011010000100010111010100111101011010001000100110,
0101111110111001111110001111110111001101000011100110000001000100,
0000000001000101000101010101011110111100001111111101011100100000,
1100010100101111010111101110100010111110001010000001101000011101,
0110010011000111101010001100000110111000000100110000110000000101,
1111101100100011010010110110101101001101001000000000110001011100,
0100011000100110010100101110010100100111000001000000001000000011,
0101010111111100011000010110010010100111110010111011110100000011,
1110010011111110011000000110001100100000110010100011101111100110,
1111101100011010111110110010110111000101101101111101101100010100,
0010110101011000011001110000111111000010010110111101010111011111,
0000011001010100010101101010011011010011111110011111001001101010,
1101110101011110111100111101010001001111010100110010111011111001,
1101010010101010101111111011000010110011010101001010110010110110,
0101110111110110011010001100101110111101001100011110000110110101,
1111011110110000010011000101101001001101101100111010110110101110,
1101011110111100000111101011000101000111010011110100010000000100,
1110011101100110001000010010001000010011110011111100001101001001,
0100010111100100000100101011100011000110111011100101111011011101,
0001100111111000010010010100000011000000111100100100111100101000,
1110011100011100111111011100101010110110101001111100110001011111,
0100111111000010000000001100000101011111111111110101010111111010,
0011011011011101110001110010100110101101001001010000100001001110,
0000110111101000101011011010001000001010111000100110101011110100,
1001111110111001000100011111101000011010000100110100000111110011,
0011101000010011010001100100011100001011010001011011000000110110,
0110100011010100000001000000101111010011010111100001111101101011,
1110110110110100000110010110011111001101010111100101111001011101,
0011110110100111001111010010000111010001010111111010111010101100,
0110010111010111010100010001001101001101101011000000111001101100,
1010000001010100101111011010110010101100110001101011110000001100,
0011001001000001101100001111011110110000110101111101000101000111,
0000000100101010001010101110101110101110010000000101110111000001,
0100111101100000010011100100010101011001000111000101110000001111,
1011111011010001001001001100000011101101111000001011100100010110,
1101111110110100000111100101001011100101111100000101010001011110,
1010111111010110001000111101101100001010111001110100100101001010,
0100111111101110101101111100001000010011101110110010111111010000,
1101011000100111010000111110111100110101000101001110110001001010,
1101101111100001000110110101010001100001000111110101010000001000,
0001100001010110110000010101000010110001110001110101010011110000,
1100100111111001001101010010011000010100101101011101000001001111,
1111000011001110001110000001110110110010101011011011100010110011,
1111000001011000010100000101010111110100101001100101101010101100,
1011010011010101000001000010111000101110000100110010010111010011,
0100100100100001110011101100001101100000101111110010101000011100,
1011000100101101011011001011110111110110001000100001100101001011,
1100110011000000000001000101000110111111001000011100001101100001,
0100111100111001001000111001100110010111010101110111101110100001,
1100000010111010001101100001011110100110101111001011100100010010,
1101100100100001010111101011010011110011011000010110000100011001,
1110010000100110010001110000010000100111101011110001001001001011,
0011011000010011001000101010111010110011010000111011010101000111,
0101101001000111010110100010101011010000101110101010000000001000,
0001110111111101000100110000010010111111111110111111111111010010,
0001110101100100010011000110000011111000001101011101110111010100,
1111101101010000000100000001100111101011111010110101101001100000,
0101101100110111110010111111101100001111000100111110111100000100,
0001111011110100010111010010011010111100001000111011010011111111,
1110100100011000000011111111110111101100000001010100100011101110,
1011101111100100010000010010000100010011111100000110000111000110,
0100110010100000010011110001110000010110010111001110001101001111,
1010011001000100001101010110011000100011111001100011101011101100,
0101011000001110010001001110101011101101111110011001111111101111,
0100111110110000000100111110001000100101011010001101110001010001,
1010010010011110110110001111101100011110111010100011110110110101,
1011000001000101011001010001110000001101111101011011111101000011,
0001011011100111010111100010010100101001111100100100000011100111,
1111011110110000111110100101000011010111000010001011100111011011,
0001010001011000101001001011100101001010110011101001101100001110,
1100000100110011111100010010001100101010010110110010100101000001,
1011011010100011100110110010101100110001111011011101101000100000,
1101111001010000010001101011111100011100001010111110111010111100,
0000001101011100001001000100000001100110001000101010100000101110,
0010010000000001000111110100000101011001100101111110111110100011,
1110011100101101100110011100110100011000111100111100110101100011,
0000100011011011001111010011000000101001010010100100000011111110,
0011111000110000110010100100100011111000001101101011111010110010,
1110110100011100000011000011000101010000001101010000000000101110,
0101001001011110000010000011100001001000101100110100011010011110,
0011101011100001001101111111101110111010001000101111001001000100,
0010101011011101111001000100001100001110001001011001110100110100,
0011110010111101101111010010011111001101101000110101101011110110,
0101010111010101010011101010110100101011111111100010001000111010,
0101011110101110001001110010100101100001010100111010010101101011,
0100100111100111101111001110000001010110011000111001100011000011,
0010000010011101010001000101000011101110010001111111100110101010,
0001011010101100000010101101111100011011110100010011101110101110,
1010110111010111111010110100001100111001001000110000101110011011,
0100101111100000010011100101000111100001000001001100001111011001,
0110011100000011101011110011100101001011010000110010111000111011,
1011101011101111111111101110010111101110001100010001010011111110,
1011100010011100001001001101011101001000110001110010010101010100,
0010010010010011001100100100001000111011101000111101111001110000,
1110100110100101000001000001000001100000001011010101100010100010,
1101100001001010110010010101100011000110001101010000011111110101,
1100111101010110011010101110001110111111110011010001011110111000,
0011111010110010010010101111111101001001101101101101010000101111,
1111010111001100010110011111010101100001101011001001111001000001,
1111011001000100011000100001000101000000000001010001011001001001,
0110000011010101111100010010010000010000001001101111111011111100,
1111010001001110000001100011111100010011001110111010011010101110,
0100111111011010000111010101100100010101110101111100000111111011,
1110100100110011010100101100100000010000101001110100111011011011,
0000100000011100101101100010010111111010101001011100000111000111,
1011001000111010001110111011110111110001110101100100000100011010,
0010011010100101010110100000011011111010101101100001000011000011,
0110011100101110110110111100101111001111001000111110001100011000,
0101001101001100001110100000001111110001110010001011111111010111,
1111010101001101000011100011100000101110010011000011111101011010,
1101101100101000110010001101010000101111111001001110100001000101,
1110111100100000000111010001010000110011010011101010111101010100,
0101011011100001111011100010001111001110010010010010101000011110,
0001000111001101110000110110010100100011101111100000010010100110,
1010111001000111101011010010011111001110101011110001010000010100,
0101101111010101110000100110010111010010000000010010011111111110,
1111111010101100110100110011001100100001100110110100111111101010,
1101111011101111111011010101111110100100001110100000010010110111,
0001110001010010001011110011001011011101101101100101101010111100,
1011010110100011010001101010101001101000101001110101111001011110,
1001111001010111001011000000000110110011001110011110010101100001,
1111001100001111110110011101100100100100110000000000110110110011,
0011111001010011110111011101000000001010000101001010100110100001,
0011010100010111010110111101000100010000101110101111011101010000,
1111011000000010000111111101100010111011001010110100101100100111,
0101101011100111001010000000101111011101101001101011100010110010,
1101000110110001111010011010010011101101111111101100011000001011,
1101100011100011000001000100010001100000100101110001000001101010,
0011101001000011001011000011100101001101010110010010011001001101,
0001100110110110111011000011000011101111001110011011010111001001,
1010110111110001111001100001000010111010101011100000001001011101,
1110011101001110000010011101000100110001110101010010111000111101,
1111101001001001001101110001110011101001001011000000000100101001,
0011001100011100001010111100100011011011110110001011011111000100,
0101110010011101011001010101110110010101111011010000011011100110,
1111010101000100001001111010110100111000000011001101101110110110,
0010010110011001010100010000010101010010000101000010011111011010,
1011100011001011000001011011100110100001101010110100010101000010,
0010111000100011010000111111011100101100001000101010111001100110,
1100111111110010010100001110101000011110001101110001111010111000,
0100111110101111000010011100001000010110111100000001100100110011,
0001101110110100101010010010011010011100010100010100110010101111,
1111101111011000001111001110101101000010101001010010110000111101,
1111001101000111101010110000100101010111010111000000010101000001,
1011101011000011111001100100101111100110011000001101100100001001,
1111001001011111111111010110010010101111110100111110111110110100,
1111111111011101111101010100000011110001110011000010011000001001,
0000010111110110010100011101010001010001101001001111001011101000,
0101111110111010000000001100001111001111010001100001100001100010,
1101001100110010111100101011010100010100010001000000000001010001,
1111111111111100111110111111110110101101000110011101001111000010,
0011111101000000001000101011000011011001101000101010111101100100,
0010010110110111000101110010010100100101000001100011011100111101,
0000000111010000001110100001110000001111100111110101011011011111,
0100010011000100011001000101101001000111101100001101111101010111,
1010010010101101011001000011011011100101101110111101101110111110,
0000111010101101111011001010001111101111000110101011010110100111,
0101100000010100110001010000010010111100111010100100011111000011,
0001110100100111000101100110100010111001101101011010111000110111,
0011101001010010011010111101011110101001001111010011001100000100,
0101111110110101101001010110101111000110000101101100111100110110,
0110001000010110001101010011101010100110101011111111100110111001,
1010110101001010111010000000101000110011010110100010101011010001,
1100011100110001001000110001010100101000001010000101000100011101,
1100101001001011000101001100010000101101101010101011001100100111,
0100100000001101001110100001001110110011101000000101001011011110,
1010010010111011010011101011010101001110111110111110000111111110,
0001000111011100001010001010101110001111111010110011010111011100,
1001111000011110110000101101111110101001110010110101100001011011,
1010110010011100110111110110001000111111100100011110001101100101,
0000000011110101111101100001100100001111010111010010110010111001,
1110000011110000010000100011010101011101111000110010010110111101,
1100001011000101000001000010001011101011010111011010111111000100,
0011101011100100010001011111010001100010001100101011001100000011,
1101100111001000000010100000000001100100001111101011110001000000,
0100001011101110110000100110001010110011111110111111001011101111,
0101010100101000111100100001100001000101000011010000111000010101,
1011000000001001101111110101100100110001010111101110101000010011,
1010000110101000000111101110100100101011000001001100111001011010,
0101101000101110110111101111001111011010101110000100001110111001,
1101111001011111010111111010011101100010001110001011110101000000,
1011110101100010010100001101011010100010001001010110000110100110,
0000100100011010101000111101010011101010100111010010010100101001,
1010001100001010001010101111011000010010001110100101101100010011,
0001001111001011001001100001001000100000001010000010001000000001,
1110110110101100110000100001101011110101000101011101000110011100,
0001010111110000010001111110000011101000101111101111100111101110,
0010010101100111110100101110111100100010011000011010111011100111,
1100100011111011110110110011011111000111001000011001111101000001,
1110101111011010010011111101011100000100111101111100000010100100,
0000100000011001010110001111010101001100000111000101101000001110,
0100100100000100000100000101011011000100111101101011010111100111,
1101100101000000000111011011000000010010110000101101101001100101,
1110001100001101101010001101010001001011000010110100011100011001,
1100110111000100110011101010010100000010001111101101101001011101,
1100110010011111101000010100110011100100001100100010111110111010,
1011010100111110111100100101100000101110110011011010111100110101,
0110011001011010101101111101011001011100111001000001110110101101,
0110000010101100101100110011001000000111010000010011001011010001,
1011100011111001010001010101010111000001000101001010110100011111,
0101011011101000111111010010111101011111011000110100101011001110,
0011011110100100010110100000010000100001001010001011101000000001,
1010010011110101111100100101010010111110101000100101101011010110,
0101010000110111010110110001011000001000111100101011101111101001,
1111101100101001101100101100010100000010110001101010001010101001,
0100010111001011010100001100010011101011110010111010111100000101,
0010001001001101110011010001110111011000001010011110100000101101,
0110000100011101011001000101101011110000111101111010001011000100,
1100101101000010101011001110110110111111111111100001111010110000,
0000110011100101111111010000101100001110111010011110011110111001,
1111100100100011000000010000000000000011010011111111000110110010,
0011000011011000001111011110000011001101001101001100010000011100,
1001111111011101110110100011000111011110110111010001101000001010,
1100010101010111100111110001100111010101010010001010100011101011,
0001000001000000111110101100111111011101010110100100010011100111,
0101000011110001011000101011100011101100101011011101010010100111,
0001000111111011010100011101001100101101010110000101001011111101,
1010001100011100101110101101000100110111101101100101000101010101,
0001101000000100010011111111000000110100001110000011110000000001,
1010001001011100000110010011111100100111000101111100001100011110,
0010010111110000000101010001110001010111001111010000001001000000,
0100111011011110111001101110111010111100000101100001010001001011,
1101101001001000110000000000101110111000101101000101011011111001,
0100000000011101111000101010001101011010010000101100110111111100,
0100110100110101010001001110111111111001101000110001011010111101,
1110111111101000111001010101101000111001000111101110100001001010,
0100100111111010101001011110100100110110011000000110000011010100,
1111101001010010000000111110001000001110111100010001000101000111,
0100100111100000001111110011001001010011010110011100011101001101,
1010110000000000101010000100110011111101000101111001110101001101,
1101110001011010110110100100111111011000110110001011011000011010,
0001100001000100101110011110110101000000111100000010111000101101,
1110001111100011001011001010100001001101001101100010010101011100,
1010101110100111000011000101010000100110110011111011011011001101,
0011010011000001001011100101010000000011001011011111010000000010,
0010101101100110001010110000100100111011110010010100001110011011,
0011000100100101001011001011010101001000010011100000001000110110,
1010100001000100110100110010000010110111000010010011000000100011,
1011001100010111111101111101100101011101111100000011011101000100,
0001111000110010001011010000000110101111110110100110011011110000,
0010111011000110101000000101000010111010110010110010100000111110,
0101000000100000010010000010000011000000010110111110111100011101,
0010011110100010101001101010110101100010010001000001101001100001,
1001111101100111001011011111100100101111111101110011000011001111,
0001100001011001011000110001111110111100001001011100100000011110,
1101111101001111110000101100001101100100010101001010000100111111,
1011011000001010110100101100011011101101011001101111111000011011,
0100100101010110001100000001001010111010000000000010111110100111,
1010110100111100110010000110001101100111110011010001001001010101,
1111101001000100110110011010010100000011110010010100100001001110,
1100010110110111001101100010010000101111101110111110110011001001,
1010011010111011000100010100001111010111111111011111001011110001,
1111010101000101011000100100101011100011110011000110000111010111,
1011100011101111001100001110000010111010010100101111000001010010,
1010101111111101101111101101000111100100000010000101010111111100,
1100010101001110101001011011100100100011011001101111010000000100,
0000010110110101111000111100000001100100010000011100111111100100,
0100100010111000000011101110101110101111110110010010111100100010,
0100000011011000110000001111110011100110000110011100111101011101,
1110111101000100011010010001110101001100001001010000010001100000,
1100011111110111110101011011010111010000010011110100110110111101,
1011110101001001001101110110001001010011010010010000100111011001,
0010010010101011111011000011110101011001110010100000000010101100,
1100110011001100010111100001010011101110001011011101011011110101,
1110010011000000001100011110011111001000001010100110110000100000,
0000010110101000010010001110010010110111001001100110010001001101,
1011011101011011110010001101001010110001110100000000001000111010,
0100010001100100110100001101011001100110001100010000111111101010,
1011111001000110111011111111110010100011000101000010101100010011,
1011111101001001100111101011110011000000101111011010010011010110,
1011001000101101010000101111011111011101001100001011111000110110,
1100111100110110000110010100111011001001010011010110011011100111,
1010111010111101110000111110000100101010110010110000100111011101,
0000101111100011101101010001111100011000000000110110101110111011,
1011011001000101110000110100100111011100111001100001010111001111,
0001100010101011101111010011101010111101111110010100011111100110,
1101011011111000101100101011111010111110110101101010010111001010,
1110101111100010000010000100010101000101101000111010011010110101,
0010110100111001110010000001001001101100011001111010100101010011,
1010011111100000101001100010100101001110110001010010100011101111,
1111100010100000010001011110001000110010000100111101111010101000,
0110010000010011001010010011000000010101101111010101101100101000,
0100010101010100101010001100100111010000011010001110110000111000,
0010011000001000110011100000001000010101101011001100101101001100,
0001111110110011111011100101111111110000011000011010010010100011,
1100001100000101000110001001111000111000101100011010011000011001,
1101010011111011100111110000101111010010010111001101001011100111,
1001110111011110101001111111011101100011010110010011100101100010,
1110010000101111000010111110111110011110011000010101110000111011,
0010001101011000000001101111110111000010000100100001001111010101,
0000110110111000110011011010000001000010101100100010100011101000,
1011111111000111111010100101110101001111110110111011100000101100,
1010010101000000110101111100110100111000001100100010000011110110,
0101101011101011001010110100010011011111010100100001101000111100,
0010011010011111110011110100111100101011010011111101011011001001,
0001010100010111000000000000010110101001000100111100010000000011,
1110100100011110000111010010101010110010101000000100001110011110,
1111100100111111111000101100001000010011011000011111100010101010,
1110111000000101111101001010010000010000111101110100100100011111,
0101001011001111110110011100011101001000000001000110011011000000,
0101001100100111111000100001110000101101000001111011011110100001,
1110011001000011000000101100001110100100010011101111110101010100,
1011001000111001110011100100111101100100010001100000010011111001,
1101100011110101101000001011101011111010110101110011010111100100,
0000010010111111001111000101110110110011111001000010010101001111,
0010111100100111010000011010000010110010001001111100111110010111,
0101001110101111000000001010101000110000110100010101001100001010,
0001000010110111110010110101110110100000110110101111011100000111,
1010010011001001010100011110100011011011010001001110101011011001,
0110000101011111101000110100010100100010101011011101010100010110,
1101011011111100000010110101010111011100111110001100001010111101,
1111111011010100010011110000011110111000101100011101010000000111,
1101101101010110011000001110010011100001111110000110010010111101,
0001001101010000001010000001101011110011010010011111111111011111,
0100101100100010110000111111110001000101111110010101101010100100,
0001100001001111110011000000100000101011001111000010001110111110,
1010011100100000111001101101110000111011000001100011111011111000,
1111010011101110110000000011001000101101001100110011111111000010,
0100010011101101001000011100001100011101100111101100111000101100,
0001110100111010101011001001111010101110000000011110011101001010,
0100011010101110101010111011001011101111100111110000100011110010,
0011010100111100110110001010001101010101110001000011110010101011,
0001001111001010000101111100000011001100001010101101111100111101,
1101000001100101010100011011011111111010010111001001101000000110,
1110100001001010011001010000100111000110100110101110010000011011,
0100100000110000110101111111101111110100000001110110100000010001,
1111110111011100001100000000000011000010111101111010100111110001,
1011011011101100010000100010111001001010101011000110001000110010,
0011101111110011111001110101011000001010010010110100110011111100,
0000001010011111010101101111111100001110011000111100001011111010,
0101010110101111000110010001110010111010010110111010111000011101,
0011011000010000000011111011010110110011010110010000000110011011,
1111001110110010101110111010001001011011101001111101111101010100,
0001111010110110111110111111010000000011101001110011010000101000,
1011010000001010111000000110000101100101111010000101100011011000,
1110111000110101001110111010010000000010010000110100111100001001,
0010111000001011111110000001011100110010011001010001110010101111,
1111111100001101000001111101101111110000110001100100111011111101,
0001001111101100000010000110111100001101010010001100000100110111,
0001111111111001101001010000101010101110101011010000000100110000,
0011110000101111001111011011110101100001111110011110010111100011,
1110101111110011111010010000010100101011010110010100011010101111,
0000100000011000010000110110011001100000111001101100100101000111,
0101111101000001111101111011111001011001000110001100010011001111,
1010010111001111001010110001100000001011000010111111010000011001,
0001000100110101110001010101000101010010111011100100111010100101,
0101111000111001110101101101111000111000010111100000010100000100,
1110110100101011111101110011000010110010001010111101111101010010,
1110100000011011101010101110101000011101000000001111000011101010,
1010110011100000000000010001000110100001111111110001011001001111,
1101000111000010101010001100010011011011001100110001011000111010,
0010110001001111101000110110000000110011111010100110001111011110,
1001110111100011000100101011010111111100011000010011000011001010,
0100100101011111111110101110001000010001110010100101100101011100,
1111000100011011010010001101100000100100110111110010010011001101,
1010101000100001010111001110001111001101010010110001001011001111,
0101101011010110000000110011001000010000110111101111010111101001,
0100000100000000111100011010010101100101000000101110111011110111,
0101101100111000110111111011011000000001101101100011010011100100,
0010111100111110010011011011001001001110101101110011101000000110,
0011110001001110100111100010000111001010110110011010110110110011,
0001000011001100010000111111101000110010101001011110000111011110,
1110101010111000101001101111010010110000001011001001101100011010,
1111011100011011110010011101010100100011000111001111011011010010,
1111111010100010010011111110111000000101110110100011110011000010,
1100110011101110001010101100111010100111110000100110101011110101,
0001000011101101110110000100100111001010011000111011010111100111,
1110000101000101011001000000001101011101000101111111001001100011,
1110011111010010010100110001111011011011010000100011010111100011,
0101000011011010011000000000111001001100111010100100101000100011,
0010111110110001110010101010001111100101110100000100011100001111,
0011000001001110000111011110111100100000001100100011011100010000,
0101011010101101111010000001101100010100000100110100111111011101,
1010011101010111000100001111100010101101110000101011100001010100,
0110001010101000111111010000100101001110100111101101101001010101,
0000111100010100111010100001001101011111111010011111100000010111,
1111111100001111101010111111100011110110111010111111010101011001,
1110101011000001110100001100001000001011101000011110001101000101,
1101110100101110111010011110111000111111111101010101000011101001,
0101101011100001110000111110011101011010101100101110001111000111,
1101110100110110101001010001001001010110000010101011111100001010,
1110000011111100111010011010011011100011001111101101010000110110,
0010111010110100111000110101001000111001000001111010001011000110,
0011010001100000001001110100000110110100101001101100001101001111,
0100111000110001011000100011001001001110011010011010111011100010,
1111011001010111110110011100011011000101001010010011001111000011,
1111000100001000110111110010001110101000111000011100110100111111,
0101011010110001101111111101000001010000000001011111111011010111,
1100101010100100000010100101010100100000010100011010111010110111,
0101010010110010110011101110111101100000110010101001110111100001,
0000101110100001001110101010001000001011111100011101000011100010,
0001011100101001111110001100000000110111011010010000100001100100,
0011110011111011110111111011111101011110110101110101000001011011,
1010100111111001101110001110010011011001111110001101100111001101,
0100111101011001001010000100011111011011001000100001010100100110,
1100100001100010101110000001111111111110101110100010010000100110,
1110111100001010110001011111101001001101011001000100010011111111,
0101101111111010011001101111010001000001111110101100111010111000,
0001101000111000111000000101010100100101010111111111011010111101,
1110010001011000110101000000110010110100101001000011101011111010,
1101000101000000111110011100101001000100010111110010001110110001,
1101001111000100010001111101011101001110001010001100101000100001,
0100110000011110111110100001001100111000111101100001100110110010,
0000100001011101011001010000000101100001010010001101000100001111,
0101001011101101001010111101111111101010111011010000011111000100,
1011110111100100110001101111000000011100001111010000000000101111,
1101100001001100111111110001100110011010101000101101010101011110,
0100011110101001010000000000110100010001000011010011000100101001,
1011010110100001110010111100010111100101010000111110010100100110,
1110000111110011110011000000000110100010011010000011011101000111,
0100110101010001110001011111000110110111010101100010001101010010,
1111101100001100101110100001100111010000000000110010000011111111,
1011100101010011001111001100100011100000111000001011101100000011,
0011001100000001101100000011010100001111111001010011111100011010,
0100011111010001001111101101100001001011010110100010100011001011,
1011010011101011010101110110001001001110110001110100101100100010,
0011101011000110100101110011111101100000111101011010001001100101,
1100001100111110101010100101011011000111110110010011101011011111,
1111001010011100101110101100111011101010110101011100001100111010,
0101101100011010010010100011110000100010001010101011001000101111,
1100101100111011001111000011011101000001001010011010100000111000,
0010100011111110110011010000011001011011000000000110000100101101,
0100101111000110110101000101111111100010000010011101110011111111,
0000111111111110001001010001001001100001000011111101100110110110,
0011100111111010110001000010000011111000000101100101010000010001,
1101100011000010001110010000010111110110010110111110101100100000,
0110011000110111111000110000000011100101010010011111011100101010,
0000110110110001010111101110110011110000111010110110011100001110,
1011000100001010111111011101110010101100111001110011000000100000,
0010101000010100111100011010110101011010101101010011010001100010,
1101010111001111111101100001010101001000111111000101101110101010,
0101011111110110110111110110101111010001110011011111101100101110,
1011001010111100010001100101100011010010000111000100100100101011,
1110101010101010000110110001101101100001101111111101101111101101,
1111110000011100011000000001101100000110000101011101110011100001,
1100111000101100001000011101001000010101101000111010101001000010,
1110110011010100110011110110010011010011000001100000101100010110,
0011111111000110011001100110000001001101001111011011111000110000,
0011011011100011000011101011001111110101001101011101001000110011,
0110000011100100000111100000100111000010101110001100101100010110,
0000100100101100101110110000110011111101000001001001011111000001,
1010100101011000011001100001111000110111001101100000011000011001,
1100110111101110101010110101100011010011111110110010010111100111,
0011111111001110110110111111101100010000010111110010111001101111;