memory_initialization_radix=2;
memory_initialization_vector=
1111010000000001110011111010101111111000101011101111001011011100,
1111110111110001101110001011111010101000001111010101101011011001,
1010100100010100111100101011101011100010000100111110001111101101,
1111000111001011111100000100100111111100010001011100101011000001,
1010100100111100001100101001111101010001101010100010110100111000,
1011000101100111001111111110010100101101010100010001011000101010,
1110111100111001110010110000101100000100111110011100000111001100,
1101110111011001000001011011100101100000010100010000010100010011,
1101100011010011000100000001000001001111000001000011101111010111,
1111010010111010000111101010011111101011011000101100101100010010,
0001110000101011001101000101100101000100000011100000110001010100,
0110001111010011010101101111011100100111101110101100101100000001,
1011001011011010000001111011001011101110001111111101111011110001,
1111000101011011101110110000100001011011110011101001111111011110,
0011011011010001010111110010111000110100010000010011101011010110,
0101100011100010000111101110110111000101110011001111011000011000,
0010011110111010000001010101001101010101101110110101010001101000,
0001010011011111010000011100011011011000110100110011111001000000,
0100001000000001101010101110010011111110100111111010001000111011,
0101011010101100110000000100100011111100111111000000001000000011,
0011011011000001111011010011111000011001011001110100110110100101,
0101011001001010111110111010100101000010001101010010011110101001,
0010100010101110111000111100010100101101001100111111001000001100,
1110010000111010110100011010110111111111111011011111011100111110,
0011110011001010001000110010000011010101010110001100010010101101,
0011100000101010010110011101010111100111111010010011011010101010,
0001100101101010110111101100101111110100101110000001110100000101,
0001001000011110101111101101111011100000111000000110100100110100,
1111101111100110101111110101000100100000111010100100110110101011,
0000100011100101000011010100001001110101000000010010000101001001,
0011111101010001010101000011010000011001110100100101110111100101,
0000010100101001000010001111111101001111000010000001111101011001,
0011101100001101101111110110000011110011010001101111010100100101,
0011101111011001001100001011101001001111000000111110110000111000,
1111111100000010000010010011001111110101111010111011100000110111,
0010111000101000001000010100001110100111101000100000011010100001,
0011011100000001110010001110100110101110000001100101000111110001,
1111010011101001110011010001000000001010010010010011110011000001,
1001111011000110000110111011010110100101000110011100010010110101,
0011110000100110110000011011100010101000101110110000110001001010,
0000111111100001111001001010111110110100001101011100110100011011,
1100111011001100000010101100100110111010010001110100111001001110,
0010111000011110110100011110110101011000010101011110011110100111,
0000001000110111011001111100101100110000110111101111000100000111,
1010010000001010111101010100010110011110010001110000001000010010,
1101001001010010010101110110000111011111000101000001101011000101,
0010111011001100011000110100101111101000010100001111101000010111,
0001111000100001000011000001010001010110001111010110100111100001,
1110000000011001000000100100111011001001110010010000010000011110,
0010100100011001010100111101100111100010110111010101000111111100,
1100001100100100110000110100000010101000101000111010001101100001,
1101110111101101110101101100011110110101001000000001111111100101,
1110111000010101000101000101100000100100111011001010111000010101,
0100111011101111000110011101110001011110000010000000100011111001,
0100010100100111101011010100000111001010110011110101111011010001,
1110110011001000001011000100100110101010001101001110001011000010,
0011100011010101111100000001001101011001010000100101010010011110,
0110010011001110101110101011010011100010111000101101100111111010,
1110000000110110101110101111001100101000000101111110011000100000,
1111110011001010001101010101011110100111000111101010101001000111,
0011100001100100000100100101000001001100011010001010001010010000,
1011001011111100110101110101111111000111110011100010011111100011,
0000111100010010111100000001011100101000111011111010110111111010,
0011000001011010101110010010101000010111010000001010000010111000,
0110100111000000010010110100011001010110101101100010011110110000,
0011111011001011111010000011000100100011110111010100100110101110,
0000001111111111111110000101101101100110111101001100101010101011,
0001011101010010111010111110011110111001101001110001100010011111,
1010111000001110101110111100001100000111000110101010111011000011,
0100010010101010111110011101101010100010110100111110111011111111,
0100100101011100011001001011111000001110101110111100010101000010,
0010111111011001111100111101111001001011111000010011111111100101,
1110100100100101010110000101001100000000010000000000011001010100,
1101100100101100110111010010000010100001001001010011100100100010,
1100100100100000101000000001110110101011110111110101101101001010,
1111011111010000000100001110001100101000101101100100110100101011,
0100110000000001000100101010000000110100101010110011100101010101,
0110000110101110101100101011010010101001110100001111010011100010,
0001100011101100010010110010110110101010110000001001111101011111,
0101011101010100101000110010111000011111110000010010100011111001,
1110010011010001001010111011011011111010010111110000001000011110,
0001100110100001001100000001011101000001000001010000001110101100,
1110100000010100010000011011110000011011000100110110001111010011,
0101000001100110001010000010101110110011110001110000011001010111,
0010000101011101010010010011010010111110111100010110001110110111,
0011101100110100000111111111111110111011101010001101000000010011,
0010000101001101010010010010100001011111000101110110011001000000,
0000001100110000000110111111101111100100101100111111111011100110,
1010000011101111000100000101101011000001110000110110000011010101,
1101100110101101001011100100110100111101101110101110101001010110,
0011111000001101101000000100111011000111001001100101001000101100,
1110010010111000111010001010000001010010111010010101100111011101,
0001001011110100010000101111011110100010101110000000010000111010,
0110011110101101010100110000101111110010101001111110110111111010,
0110011100011000101101010101000101101010101100011100100011000100,
1101011111000011010111110000001100100010100101000001010101011010,
0011100001010111001110001010100000100101011000101110001011101101,
0000001001011001101000011010110011110001010101011100101011010110,
1110000011110000001101010100100011111101000100001111110001011110,
0000011001001110000111100001100100000100000011011110011100000011,
1110100000101001001110011010001110100110010101100000110101001010,
0101110000101110001001000010010111010111001001010110011001000111,
0100111111011111110111101010111110100101000011110001110111111101,
1011111100000010110111011110010001100001111000100000011011010000,
0010111000110101110100111011010111011001001001001100110101010101,
1111001101100010101100111101001100110011001001111011110100011100,
1101100111100011110011101110000000100100010001000101110011000010,
1111011010110000110110110100011100100000110010010101000010011011,
0010111100001000001010110000000101000000000010000011001011111111,
1100010111001110010110100100001011100110110111001101111010111010,
1011001111000100001111110010001000111011100110111110111000010101,
1010110011000111110001011101111111111000111000111110001100011100,
1111100100001000101010000010000101011111100110101001111111010001,
0101111100101000010000000011111010101011010001100000010110101001,
1100000101010101111001001101010000110000010001010100000001011010,
0001110011000001010100110110001001011001001100010100000111100001,
0011111000001101101101010011111111010001110110010101010101100000,
1011110110100110101111101011101011100000110101111101010001100100,
1010111000111011110101001010111100011000010110000001000011001110,
0001000111111110101010110100010101000111000100000011001110110001,
1111101110111101000111001110011011110001111110001100000111011010,
1101011110110101001101100101001101100100001101000000001011111111,
0101011000010100010101000110001011011111011010000101000101000001,
0001101000100111101010011111100011101011111111000100001000011110,
1011001100101000010111100000001000010011010001000100101101100000,
1011001111000001010010101010111001010010000100111100100001011111,
0011000001011111001101100100110111110100111010010010100100001011,
0101100100100111001110011011111001100110111001000110010000111000,
1011101010110100111011111010011000010011010001100100100110100010,
1010011111000000110010111110001011011001010010101110100101010100,
0100001000010101101010000101110100001011010111101111100011010011,
0110001000110110111100101100110000110011000111001001110001000000,
0100011110100001110011111011101011101100001101101111010111010110,
1101101011011001001011110001110010011101110111111011110011000011,
1101001101001001101101001100101000111110101110001101000001011111,
1010000011000000001101100001100101010011101011001011111011111011,
0100100100101000111001001110001100011010000010010101000001001110,
0010101100110011000100000001110001000000010100001111010010100000,
0010011001011100110011001100010111010111001010001110010001000010,
1010000101100011101010110011110100101001111100100000100111000111,
0011101011011101110111011101101011001100010001010010100001010011,
0110001001011010000110001110000101001010101011110000101010101000,
1101110101011011111010101011101000011001001100100100110100101100,
1010001101001110001101110100110011101110010110010010100000011010,
0000010000010101000100111100011100111010110101101011110001010100,
0010111110110111010110011010101000000111110101110000001111111101,
0101111000010001000111011110011011011011001001100000001100111111,
1101100111110000111111010100010111010010001110000100110111011010,
1011100011011101100111111111111111010101001100001101100101010100,
0010110001010001111000101101011100110110110101101111111101010110,
1111100111001000011001000011011011001010011001010010001000011001,
0001101110011111010101101100000100110011110101000000111001000100,
1111010110110001001001011011101100001101010101101011111101000111,
0001010101000001010101000100011011011111000100001100101001000000,
0000111100100100111100110010111100110010001011110000100110101110,
0110000111101101010011011111110000010111110101101101011110110110,
0000001011110101010001000100000000010111101011111001111101001010,
0000101111000010010111101110011000100100100110111100001100111100,
0101111011011110101101101110010001011110000011110101110011010101,
0101010010100011010001001100000110101111101101010011110111001001,
0001010000011100110101100011000000111100011010100010100010011101,
1110010010100000110000010001001001100101001001110010101010110111,
0010111001011010110101111110011100001101011000111011100000100000,
0010111000100100011011101111111110111101010101101101101110101100,
0100010111101010101110000001000001010110001111011111011101010011,
1110010111010011011000000010111000001100001110011111111000001010,
0011110100100110010100111101100111110000000100001111110011011100,
0011011000111110010011100001010100101011000101101101010100010111,
1110111010111000010000100100001011001100110100010100001000100000,
1010000001001001010000001100111111000101001011001111101010110000,
0101100111101100000101111110001100101100111000010001101000101001,
1110011010100010010101101100011101000001010100001010101100111010,
0110100011000100110111001100101100000000111101111110110010100111,
0011101011111001111000001110001100100011111010011101011100111110,
0101000011110001010011110101001110110100101011011111110100111111,
0011000000000001010011101011111110101111110101010101101100011010,
0101101100101101010011011011110110110111100111111111101000011101,
1010000011100110000101000001000110111111110000110011110101000111,
1110000000110001111001000000010110110101110110011101010000011110,
0100101011100100111101000100101001000111111000101010100011111011,
0001100111000001110111001101100100001011101000100101010110110110,
0000100111110101110110011111110011101111111000100001110010100111,
0011111111100110001000001110111000011110001010100010110001001000,
1010001100000000010110111010011000001000010100000101000011000111,
1110001011101001111110101100111000011000001100100000011000001000,
1110111100001101000001110010000100011000101110001001101011101100,
0010010011000010111111101101111100111000010011100100110111001010,
1100001001000100001000001111110100111111000111001110000001000001,
0100010101001101101011100100000011101000110011011011110011010011,
0001000111000110001101100100110001011100000001011011101100000100,
1110111001000110110101011110111001001011000101000100110110101001,
0010001100011000010001100010101010101010110110110011001111101010,
1010101101001101111111101100000001010101110100001100110001001111,
0001000000001010001001101101010000101010110100110100110111100100,
0110100111100111110101100100101000011100000000010011100011101101,
1000110000110100110000001101101101000100001000010010110111001001,
1110101001011110010011101101011110011000110111000000101100011110,
1100111001000001010101100000000100110010001000100011001111001011,
0101010100010100000101110110001011101001111010111011001001110001,
0011000000000100111110011100001101000000001010110110011000101101,
0011111011110011010011000011111000010100000000100001111011001100,
1011001011100101101111100011110011110011111011010100011101010010,
0011000101100100101000111010010100110010110101011010111011110110,
0010010101000010111011001110101000111001001110111111101000100001,
0010010100110111000010100001110100111000101111001011001011101111,
0010101000011100110101101111011011001001001001100000110000001001,
1010110011000101000010101101111100000111111000011111101000101011,
0010000000001010000011011010110000111110110000100001101000001001,
1101010101100110011001100100000100110010101101011011000011010011,
1010100111100011000011000000011100101001000010101011111011010000,
0000001011001001001000000000010000011001001000111100001111010011,
0001001100010111000100111101001110110010101111101011100110111001,
0011001011001100111011110001011100101101011001100101111100000110,
0011001000110000001000000110011000010010111111110101110100001100,
0101101001001101110101110001000011111100111111011010100001001010,
1101000111011100000110100011001101001110111000111011100010101100,
1110001101100010011000101110100100100000111010010010010010110010,
0100000000011111001100011111110011111110111100001110111111100000,
0011000001000010001110001101101110110011101000101101000110111011,
1100111100111010010001111001110101010001101001111010001001000110,
1111000100000101111100011011100001001100111100011111001111000111,
1101110001010101110010101001100001011110111111010100000010111101,
1101011111001010100111001111010001100100010001011111011100100101,
0100001000000010101110101101000100001011101110100000101011011010,
0000000011110011101000000000101000111111000010000000000001010001,
1101011011111000110101111100011110110101011011111111110011100111,
0001110100100000110010001110100101100101110111011011011101000100,
1101111001100101010101001100100101010010110101001100000001100001,
0001101011100111110111000100010000110000111010011010110001000101,
0101011000011100010000000110011100110001111000110101001011010101,
1010101001011001001100001110011010111111101001000011111111111110,
0000000110110010111001010010010000110110011010110001000010111101,
0110001111111111101011110101111010101101001100101110110101011101,
1100010001011000010011101001110110111100010111110100111111110011,
1101011101001100010010111111101011000111110100010011111000101111,
0000110100111010110110100100010100001000000100110010000111000110,
1111011110101101101011011111010111100100010110010010011010111000,
0000111100011010000111011010101000111000010100111111110011010011,
0011100100001001000011000100000110101010111000111001011011110110,
0001100001001010110011011111100100101111000000001101101000010010,
1010111001001110110000000010110100101000111110011100111100110001,
1100001110110101011010110001011010100011110000100100110011100011,
0110100010111011010010110001001100011011010101001101100000100010,
0100100011000111000000000110010010111100101110000000110100111001,
1011110001100100000111000001111000100110001000111111001101010101,
1011110000000000101010110100001000101111010001111011110000100110,
0000010100001101110100000100001001001110110001101111001000110111,
1011011000101010111100000011100000011110001111010001010111101110,
1101111110101010000010000010101011111111111111111110011011101101,
0011001001010001000000111110111111011100000100011110101001010101,
0010100111011111010001011110011010101000111001001001101011010110,
1101000110101000111101110010101011010101110011111101111100011010,
1010001101010011101101111010001110110100001101110100111010101100,
1110001110101100110110001111001000010111110111000101011000100101,
1101111010111110100101111100011111001111001101111101111000000011,
1111000111101110111000110101001111100011010010101011000010111110,
1110101110101100110000100010110100110011101111011111100101000101,
1111001011111111110101011010100111001101010010111100111000000000,
0101100001010101111110101100010111111101101110110000101111111100,
0011101101000100110011001011111100100101001110001110010100100101,
1110110111100100000101100001001010111100111000101110111100001110,
1110100000100001101101001100110110011111111110001010100111110101,
1111100000010111110010001010100001100010001000011101010010111011,
1100100011000011111111000001010101000010110100111110001010110111,
0000001010110110111010001110000001010010100111110010010110110111,
0001001101100001000111110100011011000100110100011010000111000000,
0010110110111000110011001111000001100000011001100010011000100000,
0101011011011101000101100001100000111011010100001101000001000110,
1010101010111001010110001100101000100010001000100000000101011000,
0000101110100110011000110100000110111010011000111110011000100000,
0100101111010001011001001110000100111000110001010101111100111010,
0011000111001010010000101101101110100011001100100101111110101011,
0101100100000001101001000010010100101011101010011010011010101110,
0110010001001101001010011010110110110111111110010100001010111010,
1100111100011100010001010001111111100011111011100011100011101100,
0001110111010110111010010100001000111011010101011101100100110001,
1110000000111110110110011101101111101101110000001010101100000010,
0010011001100000101111001010011001001100011011110001000001011110,
1010000100010111001011110101000011011110110101110000101011101010,
0100001111000111101100110000001011111001001111101010000001001111,
0001111100100101101000101011010010111011110110010100110101100000,
0110001000000111010101111100111100110001101101111001111000100001,
1110101111011111111000001010101111011011000001101010010111111111,
1110010011001000010110010001011000000100111111110001010100011011,
0001101111101100010111011011100100101000010110010011101001100110,
0001010000110110001100001110100111011011000001101101001111010101,
0000100111110100101011100001010100001100010101110100000111001100,
1111110000110001111011101011010001001111111010110100000001001101,
1011010100010000101111100101100100100010001010101100010100011100,
0000011111111111001001001011110000100110101011011100101111111110,
0010100110100100001010111010010100110101011010001111000100100010,
1101001010111010011101000011011111011111110011001110111001001101,
1100110101000010101010101010111000011111110111101101101000101111,
0101110110111100110010001111101110110010010101010000101111011000,
1110111000100010001101000010111110110110011000010000001011011111,
0101010011111011000101010000110111100110101110100010010011001011,
1101100000011110110011100101100111000001000101000100110001000100,
0110001011100011101011000011001011000101001101000000111001001100,
0110011110111110101111100011110100111111001001010110110000100101,
0101101010100010001101100010101110111000100111000100000101011100,
0011111100000000000010110000110100110100110011101010111011110000,
1101100101000110101101100011011101000011001111001100100000011001,
1010010100010001001001111110010110011000111111101010111100100000,
1110110011011000111110110011011001001110101001010110001011011101,
0000110100100111000110001010110101001010111111010101111111010110,
0011010011111101000100000010100011100100010111010010000100110000,
0110101011101101111100100000100100001101010100010100101111001010,
1111111110111001111001010010001000101000001001101110100101011000,
1011011010101000000000001100100100001001000010001101010000100010,
0011101111110101000010001100100011111011110001100101100000111010,
0100100010011100111010000110001100111110000001011110110100000101,
0110011011101011010101110000111011000111110111110100110111011000,
0001010011011010100110100110010011001000010100111101010101011110,
1110000010101010111000110001100000011100000100001100011110011110,
0110000100000101110111110110111000100010110010111111001100101000,
1101111011110111101100100010111111111011110111001101010010110111,
1110001100100010111011000100100101001001111100011011100000010010,
1111101011100001000110001010110111101000010111011100111011010001,
0001111101001000110111101011000001000000010001011100111010111001,
0011010010101011000110001100010001011110011000001110011000000100,
0000010101100001101101100011001111110111000010000110000001001111,
0100000101011110110101100001101010111110101010110100011101100100,
0011110101010011001100000011100101001110110111001100100000100001,
1100101010111100110111111010101000111111110000011011010111011101,
0100010110100110011010010101101000010010101001001111111001000100,
1100000011100000110000111011111111001110000011110000001001000101,
0000101111110000111000000100000101101001001111111010110100010111,
1100011011000010011011010100110011001000101001000101110110101000,
1010001111111100010100011111110010101110111001111111001100000110,
1010100000000010110001110101001010100100101010000100110011100101,
1110001111000001000110101100111100010100010110100010110001100011,
1100001001000000110011011011001011001110110111100100000011000011,
1110111001001100010001101111011011111011000011100001111101001100,
1011011001010010110110100000101010100000001110111100011100111001,
1011010100100001101101000010101100100000111010001011010011111110,
0010010110011111111000101100010010110111000111110010010110100011,
0011101011100101110001101111101101011011010011101110000111110111,
1011001000000101110011000110001100111000101111101101001001001001,
0101100000101000111001101110001010110000111111111100000111000001,
0010011010011010101010110100101000010010101010110100010001011000,
1011000111000000101010111011011011101011001011000001010100111000,
1100011111011001000001101010101001001101110111110100100100101101,
0010110000011110111000100101110001001110111000110100001110101111,
1110110000001111001000011111100100101110110001000000001011101001,
0001010100010001110010010001011100001001000110001100011111000000,
1110001011100011001010100001010001100010111110001100101100101101,
0010101111011000110000011001111100100010101100000000101101001010,
0000000111111101001001011100001011110110010011010010001001000100,
0010110000000110001011100100110000111100011011001101111011111010,
0011100011100001101000011010100100111100101111101011001010111111,
0000011000000010001000010000110000100110110110101011111110011101,
0100111101000101001011111011101110110001000110010100111100010110,
1001111110111001010101001011111011010010000011110101100010111000,
0100101010100111001111101111000100000110011001001101000110101111,
1011111000110101000010000001001011000100000111011101101011100011,
0101101001011011101000111110011011111100111011110011110110110010,
0001111110111010101011100001111011110001101001000001001000100110,
1100111111000011111000100010101101001001100101111100111111010001,
1111010001000111111000010010001101000101101011001010100001010000,
1101001000101100111110110110110001100000101111100001010011000101,
0100011100001001001100010000100000011011000010101111000100111111,
0000111100011100101011000110011011101000111100111101101100000101,
0010110001001010101110010010111110111111000100111111101110101011,
1011110110100111010111001011000010011100010100011110101000110100,
0010011011011010101011001011111111001010110011101111011010011011,
0000111100010001101010100011010111111011010101101100111011011110,
0001100011011011001101111110100101001000111011001110111010100001,
1111010011011110111000000001010011010010001000011011001101000111,
0011110011001011010001000011001000001110111011110101000000010011,
0001110111101001110111100101111111000010110001011101101100111100,
0001110011101001010010010001110101010000001000010000110110111000,
1100110100101100010101111001111100011010110101001101011001000011,
0000000111101000101001101100111111001001110000001011010000000000,
0101001001001101111110000011101000101001000100011111011010011000,
1110011011001011001000110010010111101110000111100000111101000001,
1011001111110110000101011101100110101111010000000011100011100011,
0010101100010000111110111101010100111110001010101100001111101100,
1011101000110001101101101101011011001111000101001010101010011001,
1010000000110110000010000100011100110110111110111011111100111101,
0010010011101100001000011111111101001110010111111011110000110101,
0001100011010010000010011011010011100000000111000000011000100100,
1101010011001100010101001010010101001110110111011111111010110010,
1001111110111001000110000000001100101010010110000110001100111001,
0001001100101001111100000010001000000101000100100010001011100100,
0100010111011010101000000011001110110011000100100001111111111101,
0000110011010101010011001110011011100000111110101110010101001011,
0010001011111001110111110001000101100011110001111100110010101000,
1101011100010111110011001010101010110000010001001111010100011000,
0101111100011101111101001100001110101001101110110101001101001010,
0001100001011010000101111111001000001001000100111010110101011010,
1110001010101000000110111011001100000111011001001010011000010111,
0001000011110100000101010001010101000101111101110101001111011101,
0101001111111000000011010100101001001000111111110100000010100001,
1100100111010101111001110011100100001101110100100101000011101101,
0001011011100110010100011110100100000111110000110010010001010000,
0110011010100001000111001110111110111000000101101100011100001100,
0101110011010011110010000011011101000010001100010001000011001010,
0110001011001011010100101011111000101110011001110100001010110001,
0000011001100000111111101111111011101011111110000000011011100011,
1110101111001100110011101010111110101011001011000001001010110111,
1111010011101111111011001011000101000011001010101010100011100111,
1001111000100111000010010011010000001111001011010001101111100000,
1111110111010110000011100010100100000000101111001100000011000111,
1010001000100000111010101110010000101101111111010011110101011000,
1111101100000010001011000001111100100010000101011110011110111010,
0101101010100010001001000011110000100110111110101100111111011111,
1011000011000011101001100101100101100010000111011011000100000110,
0010010011100111110000010000001000100101010011110100101011011101,
1111010100110010101100000010111001011000111111100100010001101000,
0101111011101010000100010010101011011100010111001110011100110001,
0001001110111110110011101100000001001111110101100001001100010101,
0110011111100101111100011100101111000001110010000100001010101001,
0001100000100101001111101011011011100010111011000101010001010000,
1111110001100110010111100010111011011011000010110011110111000100,
0010100110110111111010010001101110110111001001010101001000101110,
1010011000010110010011001100101100101010111001100000001011100111,
0101010111001100110111110000110010011111001111010001111001001011,
0110000011100100110001101011000100011101001111001011000110110111,
0100110100101110001111010000000101000011110000000100110000010101,
1010100111101100110011001111001101100111101101101010110111000010,
0010011101011000000101001101011001010000000101100010110111010010,
0000000111001100111011000010100100001011000110111111100000101011,
0011100000110101110010000100100100100010101010101110100100100011,
0000101100110010001001010010111101000101000010010101000001011110,
1011110010101000110101110001100000011011101001100001011011110000,
1010010011011101101111111110001011010010111010001011001000111001,
1101110110110110111110100110001100111100001101000101100111101100,
0100110111010000111001001100010101011101110001111110010010100110,
1010001000101011000101011100101011001001110011110001111100111001,
1010010110110001000011101010101110110011010110101010010000111100,
0000001111011010000011110011100111101000110111111111111100100111,
1110001101010111101011101101000010100100101100100101010111101110,
0100011001000111110111000011011111111100111000101101110111000010,
0011011011110110110101010110011001011110101000110001001010110111,
0100000010101010011000000000110111000100101111011100111001100010,
0010011100010100101011011100010111101011010011001100010110111000,
1100000100101111000100100000111111010111010100111100110100010111,
1011100011110000101111011110101000101001010000110000110111001011,
1100110011111001011000100001111011010010110110110101001101100101,
0001011100101010111110110101110001100011000101010100111010111001,
0100011111011011111101010000100000001000001000110010111010110110,
1101010011000001101110001010111011101011011001110100011111110111,
0110000001001100000001010011100000100001000010101110001110101011,
0101010010111000011101001001111011110001010000110100111111001100,
0010110110100100010001010000001000011111111000011101111001101000,
1101010110111100110010110011000100110011000000110101011101000101,
1010111001010011000101011011001111010110001001010111110111100100,
0011011000011011001010011100010011111001000111001010010010100011,
1011011001011001010010111101101111011110000110101100100011100111,
1110011111100101111101100011111011000111010010111110111000111100,
0110011001011101101011110010001110110010111010000101111001010011,
1111111010100101000110101100100011011101010000100010111000011110,
1110110100110011000101101100111000110111010100100100110111111011,
1101011100100100000111010000101100000100000011001010101011001011,
1100010011001110001111010101001110110011010000110011010100010110,
0000000000111001000000100101001011001111011001001011000110101111,
0011011000110001110010001111111001001111101010110101000100000101,
0101111111000001111111001110001101011000101011001010111001001101,
1111000010110100000101100100010100111000111110101110011010011101,
0011101100100110001011010011011100010011011001011111011111110111,
1110011101011111011000001111000110110100010011101111010111111110,
0011110111100101000110011111111111010100010101100010011010110100,
0001100100100111101011010000001111010011001110001100111000001110,
1110101000001101000000110011101000101100010111011010000000100000,
0010010011110010101011111100000111110010010111101111010011101010,
1010010011010101001111011101000001010100100110110110011100110101,
0010100110111001100110111010100101001001001100011101000101010010,
1011110100101010000101100011000101010010111000101110000001001101,
1110100000001010000000110010001110011011101010001111000100010100,
0010100100001101001010011001110101010110111110010101100000010100,
0100110111101100110001000001101100010010010111101001110101011110,
0110000010101110010110001011001001011010011000001110010101010000,
1010110101000001110001011100010100000100101100100001000100100010,
0010110100101010000110110010101011111111111010011101100111110101,
0000000001000110101000101101111000001110000101111011000101010110,
0001100001100111101110011100111100111100101010100010010101001100,
0110000100100001101100111111010011011000110001111111010101001110,
1101110100111011110100011111100101101100111100011111101111011000,
0011100011011110101011011101111011101111000011001010101111101000,
1011100000101000000011111100100111101001001001011111001010100101,
0000001001011101010110101010001111000001111110100000110111000001,
1111101001100000010101111100101110110101111100101101010001011011,
0110010101011011110100100000000101000010000001010001100100100111,
0011111111000000110000011011110101100001010101101101011000011011,
0010001110100101010111110100011111100001001101100000001011010001,
1010001011101110000101011100010110101100101100111100100000000101,
0100111001011101010000010000101010110110001100011011110010110011,
1011010011110011110101101010000000000111000111010010011010111100,
0100000111111010001001111101100001001010111111011010101101010101,
1011101011001100111111101100101100001111001111001011001010111111,
0100101100100010010000110000101011110001111110101010100100000001,
0011010100010001001010100010111000100101001110100100011100101101,
0101011011000101011000000101110011000001111001010000011000111000,
1010101111101110101111000010011111010010010100010011010000011001,
0011010010101000000101100001000001000011010001010011100011101011,
0000100111101110110001011011100101000001101110010011101010110110,
0101010101001001101111100000100011100011001101111110110100000100,
1101011101011001111111010011101111111111001010101011011110101101,
1110100000001011011000010010000111111010000000000100001000100001,
0101100011001101010111011011011101000010011010000110010011110111,
0000011011001110111110100011111111010101001001101011110111010101,
0100001111000101011000011100100101011000001011101110110110111101,
1111011101000110010101001111000110110011111010000101011101001101,
0001110111100110001010001011001110100101001111101110000011101101,
1101010101010111000001000000010110101101000011001100000111011111,
0110001001000110010100001100000000110110001110001010001100001111,
0000100000000000000111110000010011011110001001110100001101000001,
0101100110011100001001101111111100101011000101001010010000111101,
1100010010110001111100011011011100011001001101111111110100110100,
0011110100010001000011000001001000000000101001110110000101000101,
1110110100100001000110011100001011011000100101101010100101001000,
0000000000001101001111101001110010011110000000110100000111101001,
0110000111010101000111111010100111110110111111001011100000000001,
0010101101010010111100011011100000000001000111110110010111011100,
0101100110110000111000010000010000111111110011011110101000000101,
0100100100111011101100010101010011010111110011010010010001000100,
0000010000101001110001000001011100100111101110100100110001100011,
0010010000010110001000100010000001000100001000111100011011000010,
0000101110100101101101011010110110101011111100110101001101100001,
0000101110111000001010100001101000111101101011111100011100101110,
1111000000101111000110001011010001001110000000111111100111101100,
1101001101001010000011110101110010101100000000001101101100011001,
1110110111010101000010110011010001010010101100100010011111111100,
1101010101001110101100000110100111011001001110010010101100101011,
0010011101000101011011000101010100001110001110000110101000001110,
1111001100010100100111011100100100000101111010100100110111000010,
0001111111101111010110100100100110101110010101001011011101011110,
1011001011011110101001100011011011101011101010110001110001011001,
0100010011011111111010101011101110101101111001000011011011010100,
1010101100111110101101100010011100000011111110010110001001010110,
0101101100000110110011101010100000001001011010101110111011010100,
0110000000101001010011001011000111010100000110010010101110010100,
1010011110100101111110101101111100000101010100110101100011111101,
1100101011011100111110001101101001101001111110111010100001101000,
1001110111010011111010001100001111111000110101110110001000111110,
0011110000010111000011011100101001100001110011001010000111111101,
1100000111111100111001100010010001011111001000011010000111111010,
1100110111111110000001100011111111001100010011011100101001000001,
1010000010110001100111101100010000001110001001010000010011000001,
1011010100100110010010010001001010111010110101011110010101000011,
0000100111101001101010111110100100100010101001101011001001001001,
1101101111011101000111111010011000010001010010100110000111100011,
1010000100001011010100010010111111010100011000100101111011001101,
1010110111110100101010101010001111110001110010111011011000111100,
1110001011100010000110100011111011001110110100001100101100010001,
1010010000111001101000010001101111010001111110110000011110011010,
1010000011001000110000110011111001000111001110010001100000100110,
0100111110011110000100000011010100100010101001100000000101011011,
1011111000101101010010100100100011100010110100001111011000100000,
1111110000000010011000111011001101001110110000111010100100010010,
1101101100010010001101001100111111001110001010000101001011010000,
0000110011000011111011011011001010111000110100111101110111110000,
1111011010111101110111011100001011001001100111100011110001001011,
0000110000110000110000110010111011001111111110110000101110110010,
0001011100100001010011101010100111110110001101100011000001100011,
1100000110010111000011100011100000100101000100001110101011110010,
1100100011000101111111101010011111111000001010100001011000100111,
0011101011011001000000011010011110011110100110110101111001011011,
0110000110110111110101100000011001000100110001100011111101000101,
0000110110110011001111110011001000100100001100010001110110100110,
1100111100011111010000000010110100110111111011010010110111101011,
1110000100011111011000010011001111111010111101111011100100111000,
0011001000000100101101110100111000001100111010101100000000110001,
1111001100101100001110110010000100100101000011111011110100000111,
0010111011111011111100000001011000011000101001100101010101011000,
1010110100111011000100111101000101101100111111111101111100100110,
1111110110100110101000111111111000100111000010001110010000111000,
1111011100000000011010110010011110100100010110011111101001001111,
1010010100100011001011001100010101010011101110000101101111000001,
0001110111100010001001111101101000111011110011011111000100100101,
0100000111011101010110101110000010100001010100001110110101011100,
0011010011110101110011110100100011110110111001010000100100101000,
1101001110100011101000100101011010011101111100011011001000010110,
0001001111011011010000100100110110111001101000110110001000011101,
0010111010110100010000011110001110100110101100011111110001011011,
0010010101100011110101011001110001001001000001100100101001011100,
0011001101001101010010000101100000100010011001101010110111001101,
0000111001010001111110010011110010110101110110001100011101001011,
0000110100011001110001011111010111110010001001000000001010100101,
0110010010111101011000100010011011100110111111100001101010111110,
0101111111101101001100101100101010101111111110000110010101010101,
0011000000110100110111010001001010100111111011010100101001001000,
0100001111001100110010111110111101100110101000010100000000001101,
1100101100010100001101000011111001001010000110101111110001010111,
1101111011001001011001010110100101010010010101111110001100010011,
1110111101100001000011011110101010011111010001000100100110111010,
0001100000000111010001000001111011000000101001110100100011100101,
1101011101010110000111011100010000000000111001001100010110100101,
1010000010101000101010000011010010110011000111010100101110101100,
0100100111011010010010111111101001100010101100110000110011111001,
0001001100110100111100100000111100010001101010111010011011011010,
1110110100101000010001010100101111011011000010100000010011011011,
0100111001010011111000110000001100111010111100010001000100000001,
1110101110100101110000000001011101001111000000100000000000010100,
1110110000101001111010010010001000010011010110001011100011000010,
1011010011001100101111100000001010100101000111110010001110101111,
1110111000010010001101100001011000110011101100011100000100011100,
1101101000011001110100011111010010111001001001111110100011100101,
0101011100110110111001110010100111110000000100100100111011111110,
0100000110110001101011101111010111100000011001101110000101001111,
1110010100110001000111010100011010010110010000110101110110100111,
1010011100000110001111100100100011011110010000101111100001011011,
0001011010101110010101100101101111110100111011111110011000100000,
1101000011111100011010100011011100001111000100010011110011011001,
1101011101100000101100111010100110011110001001001010100110101100,
0110100100111001111010000100001100110111110011001010110110101000,
1110000100010011111000110100100010101111101100011011101000011110,
1011000011101111111101101101000011001011111110110011111000101111,
1100000000000101001100010111010000011111000110000010101000101010,
0100001011111001001100101110001111111000000101011010001111010111,
1110011000000011000011110011000001011011101110000011110010011000,
1111100100100110111010000101100100111101000001110001111101011100,
0100100101101110111101111110101011111110101010010100001010101001,
1111101111100001110000110001101100110111010110001001100100010110,
1001100011100011001110001110001111101000000001010100011100001010,
1110010000001111111110110100100000100111001111110100101111010011,
1011011101011011110001101010011100110111111010010010011100011110,
0000011011100001110110001110010101011110001001000010000000110111,
0001001101011110000010111101010111011010001001000100111011100100,
0010110011110011101011100000010100110110110100110010100001010000,
1010111000010010000111001100001000100010010011000011001110111101,
1100011111000011110110000100011101100011110100000001000111111001,
1100101001100011111111100101101001100001001100100100001101010100,
1100001101100110000101000011100101000110101010000011001100011011,
1110101001010100101110111010001000101001001100110100111110111011,
0110101101100001101011001010101111101011010011010000101100011101,
1101010010110111110001001011000111101011101011110011010000110001,
0010000000011001001100111011110011111110001000101111011110111111,
1100011011110010011001000100010111011001111110100100100010110001,
1010010011001101111110011011111001011001001111000000010111110100,
0000100011111100111110011011000100000100001000101101110010111011,
0000111101000010001001011001010010101000111111100110011001000110,
1100110100110110010010110010110001011111010000010001110000101000,
0100011011111000001101101011010011001111101111110000001000000011,
1010111010110110101110111100100110101001101110111010010000001011,
1011011011010110000010011110101100110010001010100010000111001001,
1011001111000010101101111110110101011100111110110011011100101100,
0110011011010010000011101100000001010011010100000001100111111001,
0011110111101000001101000011101000110001010111010110100100000100,
1011010000011011000010111111110010111110010101011101000110100100,
1010100011110111011001101010100011010001111000001100001011100111,
1111010110100100111011001101011001010000000000100100101110110110,
0001010100111011010001000101010011100110001100011100010011001010,
0010000011111001101001110110011110110110110101010100101110111011,
1110111101010000110100000010010100101101010110001100010001001010,
0011011101011010101000101110100111001110101111110000101110100100,
1011010101010110110011101010010010111010000000000011010100111001,
0101010000101000111101110101001000010011001110111111111000011000,
1110010111010111000010010101110111101010110111011111110001100100,
1001101111101001011000101100001000010001110010001101001101011010,
0000010000000100000011100000111001000000101011000001001111011110,
0101110111010100111000000000111001010101011001110000111010100101,
0100001100010111010101001111111101011100110010101011001100010001,
0000100111010101001110000110011100110110010001110001100100100001,
0010000111000100110011101110001111000010100111011010101001000000,
0001010110101010100110000011010000010011001101000010000011100101,
0010100101010001010100010110000101001010110110101110100000000110,
1011111000000110101100100000011111110111101111010000011000001000,
1100000001010011000000001110111001100110010011101100010011001111,
1011110111111111101001111011111100110000101110001110101100001100,
1111000000101011101101100010111100010100001111001010011011000110,
1100010001001111101110001010101000001011001110010100001100101010,
0100111101011001010010111111001111111011000101010100111111110001,
0101100110110010111111100100000000101001010000100000110110111100,
0010101111010001111010110011100111110111001110010000011000101111,
1010000011010000000000000001100000110010101010011001110011111000,
0001100101001001101011011010101111110100111000011111100100001000,
1111111111000000010101110100110010101110010111100011110110111100,
1010010101001001111011110101100101011110000110000000011100100011,
1100000010100111110111011101000001010110101110011010111110110000,
0100100101010011101101001010010011110010001111100101110001011100,
0011110111000001000110000011001011101010101111101101110101001111,
0011101010101100000000111010100111000111111000110010111001100110,
1101010100001111001111010100100110011011000101100001001001010110,
0011011100101101111101011010011111101011100110100010010011101001,
0000111111110001111101100001011010100100100111101010110000101111,
0000100101011111010101110001010111110001011010100011101111111111,
1101000011010111111111001111001010110110111010100100100001000000,
0010110101011010110101010000011010101110110010011101111100101001,
1011111110101110001010101010010110101011110100000010110111111100,
1111101010101011001010111010111000010000101101001100010000101001,
1101001010110100111001111011101010110000000000110011111011001110,
1111111001001000110101000101110000000000000000100010011111101001,
1110110011110110101010101010011100110000010001111011011101000011,
1010001101011001110011111010101111010001011000100010000100100001,
0011101000110101011000100110010011100110001101111101000011010100,
0010000100001000010111101110001110110110010100111100010101011000,
0010101100101111010001100011111001100011111010010010001111101111,
1111111100110001101101000110011100011011000010011100000001100101,
1111000111101101011011010000010011011100001101000011111000111100,
1101111111100101001111010100001010101101110011001110110110111100,
1010101111100101101011010100001111011100001100101111100111100001,
0100000111011010001001011010111100110010101100100011100100010100,
1011111100100101111000000100110100110001011001111010110111001110,
1111011001010100010111110101101000110100001011101110111100111111,
0000000100110110101100001101001000110110010011011101001001001111,
1111010101011111101101010000010111000010010110110011011000001100,
0011000000111000110000110010111110101100111001100010000010100010,
1101001001000110101101110101111011101011110000110010110111100011,
1111100011010010101111111101000010100111110011000101100111100100,
0110000011111011000101111111111000000110101111111011110111111100,
0011101100100010111010011110101100100001110111011010010010100001,
1100010001100001101010011100111100010011110110110101010011011010,
0000111000100010110111001001111110011011001001100011101100110110,
0101010000100001001000100101100100101011010110101110101100000101,
1110010000001000100111101101111111110010010000000001101111110100,
0100110001010101000100011101010010111000010111110010100000110110,
0011010111100000001100001100100101011010001000001001111001010000,
0101110011000110001000000000001100010110000000100101110111011001,
1100010011100100111111000100111100000000010111000010010010111101,
0100110100100100111101100001011111011100000110010101011000100101,
1110111011011100011000011100010000101000010111010100100000110001,
0001001110100001001010001111100001001100011000010000011010100011,
1110111000101111101000010101001011101110010010001100001101100111,
1110101100000010111110100100100100001001001010011010110000100011,
0001011000001111110001100011100010111111110010000010000101001011,
0100010111001110110100001010110111101000101101101100001001010011,
0011101100100010000100110011100111100001111000100011011111001110,
1111101101001110000101000100110100001110000011010110000101000111,
1111100000110010101011111111001011110100111110111101011111101011,
1100010111001101111010100010111100011000110110011011010111111101,
0101000111111101000000000101011001000111010001000000110110110011,
0101101010100000000111101110001010111010010110111100010011010011,
0001111110111011010000101100100110101110010100010000000101001101,
0000010101001100101011011010011011101001111100000000000101000110,
0101010001000001101111110000101101010011000011000100001010011011,
0100011111000011000101010001000000010110010001001100001010101100,
1010110100100001000110011001101111110010010100111101101110101000,
1101110101001101001110011101000110100011110110110110011111011000,
0001010101000000111001000011001110111100010110000001110001100100,
1011111111001110101011101100101101001011101100000100101100000100,
1010100001001000010111100001100001010101101110000100000101100110,
1110111110101010010110001101101000101001101001111011100000010100,
0001111101100011101101110110000000111001010111001110111101010111,
0000110000100101010000101110001100110001111111001111011011111110,
0101011110110001110110011101000010100101000110010010001100101001,
0100100100111111110101010010010011001100111110000000000111111010,
0100100011011100000101100110011101100000001101100000011111000100,
0000001101010000011000110101110111111011110000101100110111011000,
0101000101000000000001100000100011000011101010001011000110111000,
1011101100011000111100111110110000110101010010111110101110110110,
1111111111011100100111111101011010111101111110011111011000111111,
1001111100010010010100101110010110111010101011000110011000000001,
0110011000110001001101011111101000110010111101000101010000001001,
1011100000110000010001101100111101010100010101000011010011100110,
0100100010100101001111110110110110101010000001011100110000100111,
0101001100011101001101001011011010110110010100010000110011001101,
1111000000010000101111111111110011111100000000110000011101100011,
1101101101100001111011100010110100010000001010011110000111111110,
0101001111001001000011011010110010110101110001101001010001000101,
1110011110100010110000110110100111001000001010110101111000010110,
0011001000110011110001011111011000111001000101111110110100111001,
0100010100111111001011111111000111011101010111110010010100101100,
0101101001001010110110101110111010101101110010100000111011000011,
0000100010111101110100111100110101011011000001110001111000110010,
0011111100000101010011111100101000001001010000101101110100101101,
0000101101000110111000000100000110111111001000101011010100000100,
0001000110100001101101110011111000010110000011100101110001011011,
0011101001100101101011001010101010110110001110000101111100100101,
1100111101000101001011011111001011011101110011110011111101000010,
1010011101100000010010001100011010110100010100000100111010110010,
0011001000001011000111110001001100001000101000110011001101100101,
0000101111100101001100111011101011100011101110000101011011110010,
0101100101011001111000010101010111000100001011100000101001010110,
1100011111000010110010111110001000010101110011111010100110111010,
1111111000010001010011000001111100100101010000010010111000100100,
0101110101011110010001111111110000111000110110111010111110100110,
0101100011101001001011111101101100001000000011111010100000110001,
0011100011000110010001110100001001010110101000110011110101011111,
0010110110110111101101011010011110100110110110100100000100110101,
0000001001010101001010001101001000111101110100111110100100010100,
1111011011001110001101111110110000101011100111100001000001000111,
0010001111111111010000001111101011101100010100111100010110100101,
0000100111001011110101110000001111101010001010111010000111101101,
1110011001100010000000111010111110110100000000111100100100001111,
1111000011101000110010001111010001000110111100000101001011000000,
0010110110110000010011010011101111001110101110110101111100011110,
1110011100111000110001001100101111111111001000111101110001101000,
1011001110111010000010000010101001001011001111000101101010101111,
0000110101001111111100110010010111111101001111010011101011000000,
1111101111111111101100110100001100101101111001101011000000010010,
1011010011010101110101000011110010101111110110111010000101011101,
1101100100101100000000100101110000100010110101111010000111110111,
1111101110111111010111100110000011000000001110110011111111001101,
0100111101001000010101110001001000011010001110101101110110110001,
0010011101011111111001010000111011111100110011100011001000100110,
1011101111010010010011111110111111000000000000110100101110110100,
1100011000111101010100011101010111001100000010110010111011110010,
1110111101011011000011101010100111100101010010001110110000111011,
1111110111111100111011001011010100111011101010011011111101100011,
0101000011110010001110010000001111111111111001000000100000111010,
0011100101010000001100110101110110101000011000100010100101000100,
1010100110110111110001011110001000100011111100110000100011111100,
1010100011010101101100001100001100001000110100100011110010100011,
0101001011101010001011000100110100001101000111001010000011110111,
1011010001100000001011100000111001001001101100110001001100110010,
0001000111000101010100010110010011000000111000100010011100000001,
0001000100010110100111011100011111001011101110010001111111001010,
0010011101010000010010000010100111011000000000110011100101010100,
1110011101100010110001101100111100011110001100110011000011110111,
0100000000010010000111011111110001011100000100111101011011111101,
0000000000110000000000100101110111001011110100010101110000010111,
0110011011011011001010001101000111101100000000111110000011100100,
0000101000110001000110010000011100001000001100100011111100110001,
0110000110101001001010100110100000100001001111101010000100000010,
0001111011100000110111010101010011101111111110000110011100001001,
0101011011011010000000101110100010111001111110110010010111100100,
0010000100011011011001110101001101011010010000100101011110111000,
1111111011011001101100001101010100100000010100110100100110011111,
1011001110111101110000111111111110110100010010010101110011011001,
1100001110101010000011001100101011010010010110101101000011101010,
0001000010110000111100001011010010101101011000110011000111101010,
0000100111000101010011011101111111000100000010100001011110011111,
1100111100000100000001110101110101001101010100010011101011100100,
1010000001010010010011000011011010101000010101111110110110100011,
1110100110111000010111110101110010101101001110001010110000010100,
0101111000010110111011101111001011001100101101000001001110111001,
0000101000000010001010000011000100110100011000111010010001010010,
1111111100111011101011101010111110110110010101101111010100000110,
0000000011011101001101101110100111110110110101001100100011010100,
1111101011001101101111001101000101010001101111110011100010110001,
1110010000010101001010011110010001011001100111011010100100101010,
0011110001010100110010110011011110101110010010110101110101000110,
1101000101101001000000011010011000101110111101011010001100000100,
0001111111101110110011111101011111110101010100001101101100110011,
0100100101000100010010101010000111111100110110010001101100111010,
0010110110100011101110001101001000011000000101001111101011110100,
1101000100000111110110001111101011011100110010001111010110100101,
0110001000000011000001010001110000101100100111101011101100100001,
1100011111111101111101101011011000010001000010000010000111001011,
0001111110100101001011010011101011010100110100111110111111110000,
0101111010111001101100110011000111111100010000110110000001010101,
1100111111101101111010000010011100011010111011001110011101010011,
0011001000101010010011110100011101000001001000111010110100001001,
0000100011011111101100011010000011011000001110001111111101010001,
1100010000010100000100100110000110101101000001111011001010111100,
0101110000110001010001101011100001001000101000110010011110100111,
0110000000001001000001011010010011011001010100011111011111010110,
1101111111110110001000011100101010101001101111111101010100011011,
1101000000100111001011111100101101001101101101000110100100101000,
1011111100101000001011001011101101000010101011110010000111110111,
1011011010100111011000001011110001001100010101000001101001001100,
0100101010100010000000101111100100000111101000011100000101000001,
0100000110110110101010010001010100101011101001111011110001011000,
0010000110111100000111001101101101010001101101011101011100010011,
0001110100001001101100010101000011110011111100100100010111000011,
1101000000110001111010110000010110101101001100011011111101001111,
1110011100111100110100110001001000111110010111101100100001000100,
0011111000001100010110100110000110110011000110111011000110111001,
0001100001100100000010100110010010110000000100001011101011110100,
1010011110110000101000011100001011110010010101101111011100010001,
0010101010111011010100111101001101100010001101011101101010111001,
1111011110100111000100100101001000101100010001010001101111010111,
0000111101011011110000001111110010100101000010001111111011101101,
1111110011011011110101011010100111101111001101110000011001001100,
0011101011111011110100000011000110101000110101000100111011001010,
1101011100101101000110100110111000011011010111011011001010110111,
0101000001101000111110001011110101001100000111000011100110110101,
0101110001100010000000011010011110110110110111110000110001010010,
1100111010101011000011100101110111010110110011001101111001001101,
0010100111001111110011000000011101011010000011000001001101001001,
0001000011111000111100101010111111111011001101110011111111010110,
0101011011010010111001010010001101001111111011110110101011011111,
0000001111110100110010001010011100101011001110000101101100100101,
0100010011111010000000110010110100010100101000011010010000110101,
1101000110101101001101000100111101011100010001001111000010110001,
0010100100011000110010000101110001000100010111001010001110100110,
0101001111111111000101100010011100001011111110110100010001001001,
0110001110101100001111001111011111010001111101100110011010111101,
0110011011010010001010110001001011011000001111011011010011011001,
1110001011000001111001111111010000010101111010001101000101010111,
1010011111011010101011010010101111100011001000001100000111100101,
1111111100100100010100011110011000000111000010001110110011011111,
1011010000100011010001111100000111110001110110101101000011100100,
1101111100011111101100011110111010100000110001110101000111110011,
0001000110101110001100101101111011010110000101110100100010101101,
1110001111010001000000100001111010100111001111000010111100000110,
1010011101001110111111011100110111010000110111101010100111011101,
1011100100100101000000111001111010100001101001111111111000000110,
0010000011010111001010011111001011010001001101110000010001001111,
0001010011010101111101000100001001011111001101111011111000010101,
0000011101001111000100111010110000010000001101100000010001100011,
1010001010101110110010010001101111110000101101000010100100011001,
0100111111101101000111111110000000100000101000110010101100101111,
0000100001001101001110010000101010111111110110001101110010101101,
0101011000001000000010010101010100100110111110101011100011110110,
0001111100001000001111111011001101000100111100100011110110111011,
0010101111011010110100011101111011101001000100010000001100110011,
1110011001100011000111100010110111001000001011011100101100111010,
0101001010110010110110101100011000101000001011110000101100010011,
1001111011110100111100101011001101100001101000110010010110101011,
1110101100001110000000100101111011010000001001000011101011101000,
0100100000000001001110000100110010011110000000101001110110100111,
0001110111011111111100101100010101000110000000011111111001011110,
1100101111001010000101000101001111000110000100000001000111011011,
1110100000010101111111001011000100100001010111001101010100100011,
1010010010101101001100111101101101010110010010001101010011010010,
1110101011011011111110011101110110110100010101000000001000001101,
0100000111001110001110100101101111000100010001001001001100111011,
0011110101001101100111101101110111110110100110011111001111010110,
0001001011100101001110101010001001011011010010100100011111110100,
1001000111101110001111010101011010111101101011101010010010100000,
0010001000110111001010010100110110100010111011100010100111011111,
0100000001011001000000110000000010100101101111011011111111110010,
1101011010111101001001010010011011100010101111110101101000001011,
1101011001010101001001110010000111111011000011111010111101000010,
1011101101101000000111111100001000010100000100110010010111000111,
1101101110110111110001011100100001010000111101001011010100010010,
1011001100001101110001100000100110111011010111100010101000001011,
1011011011111000110110010001110001011101110001000011000101100101,
0100010111100011110111110110000011101010101011010010100101000010,
1111011111010011111100101100011101101100101110111110110111110100,
1011001011000100111111110001000010101110001101111101101111100110,
0001001101000000110000110100101001011011100110111111100111100111,
0010011011011101110101010010101111100000001011111110000100010000,
0001001000011000000000000000010101000101010000000100000111000111,
1110110011000001011001010000100100000100110100111111010000110100,
0010001010110011000000100110110011111100100110110010010101101100,
0100000011011100110111000101111011100001010010100011100011100100,
1011110110111000000010011111000010100101000101100000100011100111,
1110101100000011110010110001101100000100000110000100010000111100,
1011100101010000010001110100001111111011010001001010111000101000,
1011011000010000010101000100000101100100111001110001010110111101,
1010011010101101001010010001111101000110110101110010100100100000,
0100101101001010000001010001001100000000110100100011101111110011,
0000010101100001110011010001101001001011000011100100010001000100,
0101011011100010001100000000110101000010111111001011101111010101,
0010101110111001110110011101101111000100000110001101001001010110,
0001111111000011001001111111000101100110001000110101110101100110,
0000000100110000010011011101110100111000010001010001001110111100,
0011000101011000101001101010011001010101111000111010010001011101,
0000000110101110110111110100011111110011010100011101000101000001,
1110010011010100010111011111100100010111001000011100000001001111,
0110001000010100110001100011000000001101000101000001100000111100,
0001001100010010110101001011011111010001000001110001110011111100,
1011101101001000110001000000111111110110010000000001000111100000,
1110001000001001101111010101110001001000000111101011100011101011,
0011101100110110101001100110001100001010111110001110010000111101,
0011100001011010111111011111011001010110010000011100100100001011,
1101111011101111111001010001011000010000001010000100000101001110,
1011100000111101010010010101010101001010101111000110001000001110,
1100011010110110000100100011000011111100110011111101001000111010,
1011111100110001001011101111110100101000111011110100011000001001,
0101111011110100111010110000111010110010000000010011010110100000,
0000110100000001001000111011010011000000010011100101000101011011,
1111000110111001101111111011111000010101000101011101011011110010,
1111110100100001101010110001011100100100111101010100101001100101,
1110100011010100010100110100111101001001001010100000101110110110,
1100101011100100110000110001111000011101001011110100100111010111,
0000010100100011111101001010000100100100010101111110101111111100,
1101111111000010000011100101101010110110000101001100010000001100,
0101001010100101001110100011101101010010000000001101100001001100,
1001110000011100111000101010101001100100101000000001001111110000,
1101010001001011001001110010111011110011000101111011010110100011,
1010101000010010001010110100101011001101110011100110000010100100,
0010110011000101111010111101010010101010000001010001010110101011,
1110101000000011010000100011101001001011110100110100011001100110,
1101100001010000001001100101001111011001001100101111110000011011,
0011011100100110110111110011111110100011000111001011010010101110,
0000010111110110010110110101011111010011011000001110001011011100,
1010011100100111110100111110000111111011110100111011001001000010,
1101110010100110110111110011101010101001110100110110001000000000,
0010110010110000111010000000010101000111110010100001101011011010,
0001011111000010101010101110101100001111001100001010101001010111,
0010010100001011000000001110110011111011000101011110000111111000,
1111110001000010011010010101011100010111010110010000010100000110,
1100001011001101101001100101100001001011001100111101001100110000,
0011111100110011001100101101001011100101001001010110110010110100,
0010000011010110011001001011111111100100101101100001101000111000,
1111010001011111010011010101011111011001001001011011100010111101,
1010011110110100111100000101110111001011010111011110011101011100,
0100111101001111010011111111100100011110010110101011010111000101,
1011000110100011011001101101110010110100111100101110110100100001,
0000111110111001010101000011101000110111000110101111101001101010,
1011110000010110001000111100001101011001011010010001110011001001,
0000000001011110110110010100000111100110110010101010101100001100,
1001111100000101000110001110101011100010000011000000111001000101,
0001010111111110010100010001100110100100010000111011010110100110,
1101110011110101000010000100000010101100001110110011100001100100,
1100010101100101000111111011101111111101111111111011100000110000,
1111001101011110001101001101101100011010000100111010100100000011,
1101100100110010101000011110110000110011111011110010110010110010,
1110101101000100001011011011111111110011110010101101101101011010,
1110110011011101001110100010011111110011111100110011011111011011,
1011101000100111000100100011000111000001101101011011000100100110,
0110001100101111110111010110001100000011110010100000111111010001,
1111011101001000110011010101010011101111010010001010010100101010,
0010001001001101001100011100110011110001100110110110000101001010,
0101111101011100101110110100001011110110010110111101001001010111,
1110111000100000010000100000101010011111000011100001110011100001,
0011000011101101000011100010001110100110111110110100011110111001,
1010001001000010101101010100001010101011110011001010100110110100,
1100101000010110110111100010000110100010011010011011001111110001,
0100001001010110101010000011100101000111010111101011100011110000,
1100111000000011111111011011000100100110001011110101111101011010,
0111000011100011000110101111001101101011111111101101001101101000,
0000010100000001000110011010111111100010000101000001000010110010,
1101110000110100000011110001001000010011111100110110011100001011,
0110011110101011101001100010011000110000000111111110011000110001,
0001111011001100111111001111101100101111001010011101000000111010,
0010110101101001110010010010111111010111101001111011010111101010,
0011101100100101101000111111011010100110111010001110100110100011,
0010111010100100000101011010110000001110110101111111110110100001,
1011110110100111001111111101100110111110110011011101000101001111,
0010001011100010010101110110001100000011101101111111010011110011,
1011001110111001001000011010110010101110000111110001001010111010,
0010011011010111110010011011001011001101110011000100010011110001,
0001000000100011101100100000000111001110101111111110000010101001,
0101011000000010011000100011010101011000111111011111001000001000,
1010010101000001110011111101010000111111111101110000011111110001,
1110100111000001110001101110011111111101000001001011001101011110,
0000010111010111111010110101100001001000011010000000000001100100,
1110011110111000110110110001100011111110101111001010111011000100,
0000011101001110010010010100000111101111000110111011000101011101,
0101100001001110110100011100101111110010111101011010010000001111,
1101000101000101110100101111011101001000001000001011100101100101,
0001100110011101011001100001000010111100110000111100100100001101,
0001001010111000001110011011011000100101101001111111001011010000,
0100010111100011010010011011000100111010001111100110100111111100,
0100100000010101010001110110000100010001111100111100111001001010,
1100000101001110010001000001011011000011010111010010000110101010,
1101111010110101000100010011101111000110110001111111100101011000,
0011000110101010111100001101000000010100111110110000001011011000,
0001000100011010010011010110000100010011101101110010101111100101;